<pad>	0
<s>	0
</s>	0
<unk>	0
<translate>	0
<summarize>	0
<qa>	0
<lang:en>	0
<lang:hi>	0
<lang:es>	0
<bos>	0
<eos>	0
▁	-1.34072
.	-4.03029
▁s	-4.41457
▁the	-4.4773
%	-4.55659
)	-4.60238
▁_	-4.69969
▁to	-4.83284
▁के	-4.83505
▁है	-4.85371
▁(_	-4.938
▁नहीं	-5.08662
▁में	-5.1382
:	-5.15235
▁को	-5.15235
▁करें	-5.21137
▁a	-5.22654
s	-5.3151
,	-5.42943
▁of	-5.45098
▁से	-5.58026
▁लिए	-5.64721
▁का	-5.66626
▁(	-5.67764
▁not	-5.7373
▁in	-5.85597
"	-5.87003
▁की	-5.8965
▁for	-5.91488
:%	-5.95282
▁The	-5.96011
▁'	-6.03797
▁फ़ाइल	-6.06279
▁be	-6.06597
▁C	-6.07759
'	-6.1034
▁is	-6.1092
▁-	-6.12499
▁पर	-6.13391
...	-6.13498
▁कर	-6.17223
-	-6.17418
/	-6.19552
ing	-6.25522
ा	-6.26371
▁संदेश	-6.26487
▁file	-6.27048
ने	-6.30552
े	-6.3286
?	-6.34716
▁एक	-6.36687
▁you	-6.38734
▁रहा	-6.40246
▁/	-6.4217
▁and	-6.42615
ित	-6.445
ः	-6.44631
ी	-6.45694
▁आप	-6.50046
▁P	-6.51917
▁इस	-6.52196
▁हैं	-6.53304
▁फ़ोल्डर	-6.55971
▁नाम	-6.57811
▁%	-6.58155
▁this	-6.58557
▁or	-6.59456
▁S	-6.60313
"%	-6.61797
▁छवि	-6.61924
▁A	-6.62589
▁क्या	-6.64997
d	-6.66821
▁और	-6.69086
▁d	-6.69234
▁या	-6.71006
▁"	-6.71123
▁करने	-6.72101
▁यह	-6.72767
▁कोई	-6.77329
▁folder	-6.7794
▁on	-6.8028
▁message	-6.80424
▁from	-6.81674
annot	-6.82096
▁डिस्क	-6.84656
▁किया	-6.85362
▁सकता	-6.85431
▁will	-6.86569
▁with	-6.88065
र	-6.91999
▁सूची	-6.93182
t	-6.93714
▁सर्वर	-6.9383
▁संपर्क	-6.95562
▁Could	-6.96625
ों	-6.97343
▁your	-7.01316
▁हो	-7.01363
▁project	-7.01424
;	-7.01987
▁प्रयोग	-7.0245
▁गया	-7.04914
n	-7.06073
▁+	-7.08248
▁जा	-7.08551
▁an	-7.09597
▁फाइल	-7.09963
▁image	-7.10453
ther	-7.11548
▁it	-7.13684
▁कि	-7.13867
▁files	-7.13946
▁server	-7.14281
▁विंडो	-7.14422
▁Show	-7.16309
▁त्रुटि	-7.1765
▁disc	-7.17808
▁सभी	-7.17873
ed	-7.18331
▁चयनित	-7.21939
▁साथ	-7.22329
▁No	-7.22785
▁पता	-7.22819
▁कृपया	-7.22871
▁selected	-7.229
▁रूप	-7.22933
e	-7.23045
▁(%	-7.23587
▁name	-7.24307
lease	-7.24321
▁M	-7.24392
▁दिखाएँ	-7.24451
▁new	-7.27396
▁D	-7.28355
▁R	-7.30649
▁that	-7.31067
▁कार्य	-7.31269
▁खोलें	-7.31833
▁परियोजना	-7.3233
▁जोड़ें	-7.32489
▁You	-7.33241
▁by	-7.34036
▁चुनें	-7.34514
▁नया	-7.34574
▁current	-7.34777
▁Add	-7.37044
▁are	-7.372
▁डाक	-7.37327
▁1	-7.37601
▁want	-7.38421
▁list	-7.38609
▁सका	-7.3926
▁Y	-7.40127
▁as	-7.40639
▁स्थिति	-7.40878
▁करता	-7.41677
▁उपयोग	-7.41778
▁Select	-7.42783
▁window	-7.42849
▁ले	-7.43383
▁Name	-7.44756
▁पृष्ठ	-7.45415
▁use	-7.45471
▁मौजूद	-7.45783
▁directory	-7.4655
):	-7.4663
",	-7.46779
▁Whe	-7.46819
▁File	-7.46942
▁न	-7.47061
▁B	-7.48599
ल	-7.48721
▁all	-7.496
क	-7.49636
▁निर्देशिका	-7.49649
▁has	-7.49704
▁I	-7.50342
▁messages	-7.50574
▁2	-7.50581
▁करना	-7.5073
▁सहेजें	-7.51067
▁जाएँ	-7.51297
▁Thi	-7.51378
▁~	-7.51525
▁Open	-7.51608
▁mail	-7.51837
न	-7.53591
▁“	-7.53711
▁Error	-7.54145
▁चाहते	-7.54657
▁विकल्प	-7.5497
▁can	-7.55125
▁H	-7.56175
त	-7.56737
▁द्वारा	-7.5736
▁लिये	-7.57425
▁सूचना	-7.57507
ता	-7.57695
▁m	-7.58256
▁Save	-7.58623
▁CD	-7.58686
▁स्थान	-7.58687
▁खाता	-7.59123
”	-7.59181
▁#-#-#-#-#	-7.60354
▁इंच	-7.60424
▁पाठ	-7.60878
▁New	-7.61573
y	-7.61615
▁जो	-7.61851
▁कूटशब्द	-7.61876
िंग	-7.62109
▁अ	-7.62436
ई	-7.63069
▁T	-7.63147
▁Do	-7.63413
▁error	-7.63456
▁F	-7.64006
▁लोड	-7.64162
▁used	-7.64665
▁Move	-7.65235
▁यदि	-7.65925
▁Image	-7.66067
▁whe	-7.67209
▁बना	-7.67297
▁p	-7.67915
▁create	-7.68375
▁Failed	-7.69502
▁सक्रिय	-7.69595
▁information	-7.70063
▁बदलें	-7.70239
▁data	-7.70396
▁Anjuta	-7.70672
▁वीडियो	-7.70731
▁हैः	-7.70863
▁Remove	-7.7195
▁contact	-7.72547
▁X	-7.72572
▁समय	-7.72722
able	-7.73635
▁खाली	-7.73817
▁should	-7.75151
▁सेट	-7.75339
▁प्रमाणपत्र	-7.75816
▁चाहिए	-7.76863
▁password	-7.76918
▁does	-7.77768
▁कमांड	-7.77829
!	-7.77835
▁c	-7.78197
▁DVD	-7.78698
r	-7.78854
▁जब	-7.78861
▁page	-7.79075
▁mode	-7.79236
▁ID	-7.79445
▁आकार	-7.79465
▁E	-7.80707
▁खोल	-7.80773
▁open	-7.81197
▁पहले	-7.81825
▁U	-7.82003
▁have	-7.82934
▁Copy	-7.83127
▁रंग	-7.834
▁योग्य	-7.83522
▁if	-7.83794
▁पंचांग	-7.84302
▁Evolution	-7.84328
▁फि	-7.84346
▁address	-7.86269
▁प्लगइन	-7.86473
▁दृश्य	-7.86576
▁document	-7.87255
▁Project	-7.87336
x	-7.87508
▁Use	-7.87522
▁रखें	-7.8808
▁बाहर	-7.88855
▁If	-7.89038
▁क	-7.89172
▁सकाः	-7.8945
▁आ	-7.89517
▁3	-7.90096
▁खोज	-7.90157
▁All	-7.90936
▁could	-7.91027
▁failed	-7.91347
▁License	-7.91518
ए	-7.91696
▁View	-7.9226
▁POP	-7.92956
▁Un	-7.93235
▁only	-7.93614
▁मिटाएँ	-7.93622
▁text	-7.93956
▁O	-7.94644
▁type	-7.94864
▁video	-7.9492
▁बंद	-7.95564
▁स्क्रीन	-7.95602
▁प्रोग्राम	-7.96521
▁एवोल्यूशन	-7.96751
▁account	-7.9686
▁plugin	-7.97409
▁N	-7.97834
▁समूह	-7.98259
\\	-7.9923
▁दस्तावेज	-7.99384
▁आरंभ	-7.99572
▁अवैध	-7.99727
▁List	-8.00269
▁कॉल	-8.00415
▁URI	-8.00547
▁प्रकार	-8.00886
▁आयात	-8.0098
▁at	-8.01391
ना	-8.02187
▁time	-8.02465
▁गुण	-8.02837
▁पूर्ण	-8.02953
re	-8.03365
▁बनाएँ	-8.03447
▁version	-8.0371
▁अज्ञात	-8.04298
▁Folder	-8.04463
▁Search	-8.04637
▁G	-8.04787
▁Enable	-8.04798
▁Create	-8.05001
▁समर्थन	-8.05846
पट्टी	-8.06373
▁प्राप्त	-8.06384
▁command	-8.07273
not	-8.07909
▁was	-8.08063
▁लिख	-8.08681
▁calendar	-8.08972
▁नक़ल	-8.0919
▁using	-8.09495
▁हटाएँ	-8.09498
ly	-8.09801
▁add	-8.09803
▁लक्ष्य	-8.10843
▁पंक्ति	-8.10954
▁सहेज	-8.11428
▁user	-8.1158
▁पसंद	-8.11811
▁General	-8.12371
▁आपके	-8.12517
▁w	-8.12551
▁क्षेत्र	-8.12629
▁URL	-8.13703
▁जोड़	-8.1373
▁set	-8.14588
▁सकते	-8.14807
▁source	-8.14826
▁Edit	-8.15271
ं	-8.15376
▁option	-8.15401
िक	-8.16138
▁Go	-8.16199
▁empty	-8.16816
▁स्रोत	-8.17019
▁मोड	-8.17082
इसे	-8.17387
▁अन्य	-8.17408
▁Address	-8.17445
▁no	-8.17609
▁ध्वनि	-8.17651
▁समर्थित	-8.18509
▁दस्तावेज़	-8.18735
f	-8.19134
▁support	-8.19181
▁ऑडियो	-8.19268
▁copy	-8.19564
▁प्रोजेक्ट	-8.19576
से	-8.19593
I	-8.19638
▁मान	-8.19803
)...	-8.20067
▁sure	-8.20582
▁one	-8.20736
▁अनुप्रयोग	-8.21355
▁hi	-8.21369
▁संस्करण	-8.2139
Invalid	-8.21798
▁स्थानीय	-8.22333
▁ढूंढें	-8.22448
▁changes	-8.22505
▁विफल	-8.22583
▁कर्ता	-8.22781
AR	-8.22848
▁कुछ	-8.23104
मान	-8.23138
▁सत्यापन	-8.23247
or	-8.23396
▁IMAP	-8.23535
▁Message	-8.23652
रिक्त	-8.23784
▁audio	-8.23889
▁format	-8.23924
▁डीवीडी	-8.24182
▁Start	-8.24355
▁actor	-8.24697
is	-8.24817
en	-8.24855
/%	-8.25218
▁दिया	-8.26132
▁show	-8.26236
▁next	-8.26337
th	-8.2654
▁Disable	-8.2662
▁Delete	-8.267
▁पान	-8.27054
er	-8.27223
▁प्लगिन	-8.27293
▁onto	-8.27368
▁असफल	-8.27436
▁Public	-8.27522
▁Exchange	-8.27688
▁तस्वीर	-8.27753
▁सीडी	-8.27876
▁=	-8.28087
▁परिवर्तन	-8.28235
▁चौड़ाई	-8.28299
▁supported	-8.28445
स	-8.28451
▁i	-8.28461
▁po	-8.28648
▁ट्रैक	-8.29276
▁search	-8.29641
▁Home	-8.29815
▁लें	-8.29932
▁निर्दिष्ट	-8.30595
▁L	-8.30943
ड़ी	-8.31009
या	-8.31355
▁अति	-8.31453
▁Unknown	-8.31896
▁Find	-8.31971
▁हस्ताक्षर	-8.32009
▁टैब	-8.32369
▁been	-8.32955
▁found	-8.32957
▁प्रारूप	-8.33068
▁Work	-8.33068
▁संख्या	-8.33144
▁Contact	-8.33333
▁o	-8.33584
▁connect	-8.33904
▁images	-8.34069
▁GNOME	-8.34181
▁मदद	-8.34376
▁सामान्य	-8.34377
▁चि	-8.34718
▁offline	-8.34952
▁ब्रैसेरो	-8.3521
▁ईंट	-8.35367
▁clubs	-8.35421
▁hearts	-8.35437
▁spades	-8.35438
S	-8.35448
▁चयन	-8.35449
▁diamonds	-8.35459
▁पथ	-8.35469
]	-8.3563
▁विधि	-8.35678
▁वि	-8.35855
▁लिंक	-8.35979
▁size	-8.3601
▁जाने	-8.36261
▁default	-8.3646
5	-8.36542
▁भेजें	-8.36569
-2	-8.36683
▁युक्ति	-8.37112
▁save	-8.38005
▁रद्द	-8.38088
▁program	-8.38099
▁कम	-8.38429
▁Set	-8.38708
▁task	-8.38776
▁रहे	-8.39486
U	-8.39562
▁आपको	-8.39606
▁path	-8.40108
C	-8.40634
▁क्लिक	-8.41078
▁02	-8.41163
ISO	-8.41236
▁वस्तु	-8.41267
▁फ़ॉन्ट	-8.41805
▁may	-8.41827
▁com	-8.42068
▁स्वतः	-8.42137
▁folders	-8.42142
▁Brasero	-8.4216
िसी	-8.42192
▁color	-8.42511
▁प्रारंभ	-8.42539
▁LDAP	-8.42643
▁उपयोक्ता	-8.42694
▁वेब	-8.42727
▁सा	-8.42734
▁[	-8.42876
का	-8.43
▁W	-8.43164
▁हेतु	-8.43182
▁Plugin	-8.43335
▁संपादक	-8.43491
▁जाना	-8.43659
▁view	-8.43671
▁Empathy	-8.43672
▁remove	-8.43941
▁भेज	-8.44143
▁value	-8.44172
▁device	-8.44191
▁Certificate	-8.44497
▁दौरान	-8.44563
▁enter	-8.44569
▁more	-8.44575
▁उपलब्ध	-8.44579
▁Close	-8.44869
▁available	-8.4503
▁तयशुदा	-8.45202
▁America	-8.45204
▁साफ	-8.45274
▁target	-8.45288
▁certificate	-8.45604
▁अमेरिका	-8.45697
▁sound	-8.45846
▁Windows	-8.45977
▁अंतिम	-8.46444
▁निष्क्रिय	-8.46736
▁Password	-8.47202
▁without	-8.47378
▁प्रयुक्त	-8.47834
▁व	-8.48077
▁but	-8.4824
▁Import	-8.48249
▁any	-8.48281
▁get	-8.48975
▁book	-8.49287
▁मद	-8.4959
▁दें	-8.49688
व	-8.50083
▁pane	-8.5026
▁समाप्त	-8.50647
▁track	-8.50804
▁पुस्तिका	-8.50932
▁दिखा	-8.50984
▁सत्र	-8.51111
▁Source	-8.51475
ch	-8.51475
▁call	-8.51695
▁Disc	-8.51718
▁re	-8.52005
▁किस	-8.52162
▁Text	-8.52581
▁ऐस	-8.52837
▁आँकड़ा	-8.52852
▁अग	-8.53409
▁अनुमति	-8.53519
i	-8.53997
a	-8.54045
▁already	-8.54082
▁अंत	-8.54165
▁find	-8.54302
▁Display	-8.54427
▁contacts	-8.5458
▁To	-8.54664
▁असमर्थ	-8.54678
MS	-8.54701
▁अक्षम	-8.55117
▁CVS	-8.55175
▁options	-8.55512
▁इतिहास	-8.55553
▁अधिक	-8.55582
▁जाता	-8.55747
▁आपका	-8.55762
▁Screen	-8.55804
▁read	-8.56153
▁space	-8.56165
▁नामः	-8.56171
▁line	-8.5628
▁संपादन	-8.56332
▁specified	-8.56818
▁गई	-8.5686
▁select	-8.57198
▁पहुँच	-8.57488
▁plugins	-8.5751
▁Video	-8.57638
▁Server	-8.5772
▁ज्ञापन	-8.57924
▁status	-8.58436
▁बग	-8.58507
▁Type	-8.58841
▁Are	-8.59249
▁Editor	-8.59415
▁विषय	-8.59451
▁Wh	-8.60219
▁लिखें	-8.6029
▁editor	-8.60462
▁कॉपी	-8.60912
में	-8.61045
▁सक्षम	-8.61214
▁SMTP	-8.61488
▁उपकरण	-8.61512
▁up	-8.61555
▁Default	-8.61567
▁Document	-8.61693
▁Options	-8.61884
▁while	-8.62185
▁ऑफ़लाइन	-8.6219
▁g	-8.62288
▁ला	-8.62462
▁संपादित	-8.62545
▁Print	-8.62672
▁डाउनलोड	-8.62829
▁Z	-8.62987
▁ईमेल	-8.63069
▁कोशिश	-8.63474
at	-8.6349
c	-8.63542
▁help	-8.6376
▁अगला	-8.63839
▁पूर्वावलोकन	-8.64057
ते	-8.64119
▁remote	-8.64153
▁V	-8.64232
▁अक्ष	-8.64286
▁application	-8.64378
▁खेल	-8.64507
▁स्वचालित	-8.64508
▁लॉग	-8.64666
▁do	-8.64713
▁गए	-8.64717
▁मेल	-8.64949
▁घटना	-8.64992
▁वर्ग	-8.65039
▁होम	-8.65104
▁delete	-8.65118
▁width	-8.65156
▁before	-8.6518
▁b	-8.65377
▁Send	-8.65409
on	-8.65487
▁पट्टी	-8.65616
ether	-8.65668
▁ऊपर	-8.65757
▁बदल	-8.65905
▁विफलः	-8.66015
▁आधार	-8.66039
▁Web	-8.66113
▁जांच	-8.66208
▁मिला	-8.66237
▁deleted	-8.66292
▁free	-8.66403
▁वर्त	-8.66441
▁flags	-8.66676
▁last	-8.66855
▁जाँच	-8.66888
▁0	-8.66907
▁Not	-8.67048
▁process	-8.6722
▁पा	-8.67313
▁contain	-8.67338
▁location	-8.67627
▁लागू	-8.68148
मिल	-8.68202
▁गलत	-8.68314
ें	-8.68892
▁हुआ	-8.69003
ौर	-8.6916
▁बटन	-8.69199
▁अद्यतन	-8.69426
म	-8.69471
▁send	-8.69501
▁manager	-8.69642
▁system	-8.69907
▁श्रोत	-8.70024
▁following	-8.70398
▁check	-8.70404
▁लिखन	-8.70527
▁SSL	-8.70529
▁आंकड़ा	-8.70547
▁तो	-8.70602
▁display	-8.70845
▁/%	-8.70877
▁required	-8.71072
in	-8.71165
▁प्रबंधक	-8.71417
▁e	-8.71468
▁Free	-8.71602
▁selection	-8.71633
▁start	-8.71656
▁अप	-8.71743
▁{0}	-8.71937
्स	-8.72085
▁Help	-8.72163
▁विन्यास	-8.72254
gnome	-8.72261
▁बर्न	-8.72291
के	-8.725
▁तक	-8.72565
▁burning	-8.72612
▁Link	-8.72781
▁वाले	-8.72955
▁अपन	-8.73001
▁सकताः	-8.733
▁पिछला	-8.73637
▁भी	-8.73732
▁write	-8.73793
▁दिखायें	-8.7418
▁पुनः	-8.74449
▁link	-8.74462
▁कुंजी	-8.74521
▁key	-8.74804
▁like	-8.74975
▁into	-8.75072
▁whi	-8.7511
▁बत	-8.75172
▁औजार	-8.75693
".	-8.75725
▁बार	-8.7578
▁हटा	-8.75906
▁विवरण	-8.75945
ुम	-8.76129
▁Check	-8.76155
▁सहायक	-8.76515
▁Files	-8.76806
Name	-8.77092
▁छोड़ें	-8.77298
▁नीचे	-8.77316
▁item	-8.77623
▁history	-8.77681
▁In	-8.77762
▁Email	-8.77879
▁authentication	-8.77927
▁exists	-8.7797
▁HEAD	-8.7801
▁पुस्तक	-8.78049
▁chat	-8.78334
▁शीर्षिका	-8.78378
▁As	-8.78429
st	-8.78507
▁8859	-8.78509
▁local	-8.78538
खिल	-8.78663
▁संस्थापित	-8.78848
र्फ	-8.79106
▁after	-8.79186
uch	-8.79188
es	-8.79356
▁पास	-8.79458
▁केवल	-8.79506
▁फोल्डर	-8.79697
▁बिल्ड	-8.79734
▁number	-8.79929
▁जरूर	-8.80182
▁group	-8.80338
▁ISO	-8.80355
▁फिल्टर	-8.8041
le	-8.80692
▁out	-8.80873
▁quot	-8.80919
▁position	-8.81043
▁Cogl	-8.81114
▁u	-8.8127
▁Page	-8.81473
▁शुरू	-8.8151
▁It	-8.8154
▁स्ट्रिंग	-8.81572
▁bookmarks	-8.81594
की	-8.81779
▁User	-8.81907
▁देखें	-8.81927
▁इसके	-8.81938
को	-8.82281
▁two	-8.82454
▁code	-8.82483
▁फ्लैग्स	-8.82508
▁सि	-8.82525
▁wh	-8.82605
▁प्र	-8.82607
▁हुक	-8.82678
ायी	-8.82771
भी	-8.82908
▁स्तंभ	-8.83129
पूर्व	-8.83161
▁Mail	-8.83321
▁प्रतीक	-8.83407
ओं	-8.83469
▁अधिसूचना	-8.83575
▁Foundation	-8.83585
▁Previous	-8.83654
':	-8.83775
▁make	-8.84436
oftware	-8.84529
▁फोन	-8.84556
▁Place	-8.84638
nable	-8.84665
▁दा	-8.84708
▁कनेक्शन	-8.8478
ज	-8.84903
▁जारी	-8.8501
▁x	-8.85103
▁सदस्यता	-8.85135
TY	-8.85273
▁सारणी	-8.85398
▁कोड	-8.85555
▁other	-8.85625
▁Enter	-8.85631
▁Selected	-8.85914
▁Next	-8.85914
▁दिखान	-8.86182
3	-8.86322
▁शीर्षक	-8.86376
▁need	-8.86478
▁रिमोट	-8.87154
u	-8.8728
▁तर्क	-8.87297
▁end	-8.87348
▁अनुक्रिया	-8.87396
▁करेंः	-8.8752
▁mailbox	-8.87664
▁पसंदीदा	-8.87683
▁response	-8.87692
▁contains	-8.87718
▁report	-8.8803
▁दहला	-8.88053
▁Build	-8.88464
▁Asia	-8.88505
▁संलग्नक	-8.88553
▁load	-8.88573
▁चलाएँ	-8.88937
▁था	-8.88968
▁एशिया	-8.89247
▁होता	-8.89249
▁Program	-8.89399
▁निर्म	-8.8949
▁Make	-8.89688
▁जमा	-8.8989
▁फ़ाइलें	-8.89948
▁tree	-8.90049
ण	-8.90064
▁memo	-8.90232
▁रोकें	-8.90249
▁Subversion	-8.90264
▁object	-8.90269
▁Class	-8.9039
▁session	-8.90414
▁"-	-8.90494
▁बारे	-8.90494
▁सम	-8.90497
▁यहाँ	-8.90626
▁For	-8.90643
▁फ	-8.90666
revious	-8.90822
▁तिथि	-8.90926
▁Yahoo	-8.90967
▁date	-8.91036
▁GN	-8.91192
▁जाएगा	-8.91286
▁web	-8.91905
▁again	-8.91984
▁इन	-8.91992
▁string	-8.92106
▁event	-8.92337
▁library	-8.92348
▁सबवर्सन	-8.92423
▁जरूरी	-8.92423
वां	-8.92737
▁मुख्य	-8.92836
▁ही	-8.92975
▁चैट	-8.93075
▁K	-8.93359
▁Time	-8.93641
▁Choose	-8.93815
▁f	-8.9409
ट	-8.94154
▁देता	-8.94207
▁सकती	-8.94612
▁input	-8.94631
▁Line	-8.94669
▁t	-8.94705
सी	-8.94816
▁विस्तार	-8.9487
▁try	-8.95135
▁Loading	-8.95184
शा	-8.95335
▁मिटा	-8.95391
▁contents	-8.95408
ould	-8.95516
▁differen	-8.95738
▁मुलाकात	-8.96017
▁Burning	-8.96148
▁ल	-8.96241
▁than	-8.96447
▁column	-8.96531
▁ब	-8.96725
▁Hide	-8.96812
▁Can	-8.96924
▁details	-8.96965
▁its	-8.96973
▁दूसर	-8.9716
▁जुड़	-8.97503
▁जवाब	-8.97598
_	-8.97653
▁menu	-8.97655
▁Data	-8.97662
▁settings	-8.98062
▁दूरस्थ	-8.98319
▁चल	-8.98343
▁ड्राइव	-8.98345
▁करेगा	-8.98345
▁Properties	-8.98357
▁Run	-8.99196
▁Tab	-8.99222
यों	-8.99223
▁axis	-8.99224
▁gnome	-8.99239
▁Information	-8.993
▁जिस	-8.99498
▁Other	-8.99684
▁क्रिया	-8.99693
▁ऊँचाई	-8.99716
▁properties	-8.99769
▁गोपन	-9.00023
▁valid	-9.0016
▁software	-9.00175
▁Size	-9.00189
▁कक्ष	-9.00192
▁Clear	-9.00201
▁उदाहरण	-9.0025
▁burn	-9.00302
▁सफलता	-9.00311
▁meeting	-9.00357
▁card	-9.0073
▁font	-9.00746
>	-9.00776
T	-9.00949
▁अधिकतम	-9.01217
▁जानकारी	-9.01311
▁Font	-9.01351
),	-9.01627
▁न्यूनतम	-9.01662
यी	-9.01777
▁button	-9.01863
▁un	-9.02003
the	-9.02069
▁Ekiga	-9.02118
▁backend	-9.02151
ाल	-9.02156
▁temporar	-9.02157
▁प्रदर्शित	-9.02166
▁Location	-9.02215
▁आग्रह	-9.02377
▁सिस्टम	-9.02392
Y	-9.02396
▁operations	-9.02504
▁शा	-9.02592
▁निम्न	-9.02751
g	-9.02829
▁कड़ी	-9.03026
▁Zoom	-9.03073
▁height	-9.03114
▁विलोपित	-9.03248
▁fill	-9.03587
▁preview	-9.03622
▁क्षैतिज	-9.03657
▁calls	-9.03736
▁Path	-9.03772
▁email	-9.0381
▁सारांश	-9.03967
▁left	-9.0406
▁बाद	-9.04081
▁होगा	-9.04084
▁invalid	-9.04105
▁action	-9.04317
▁opened	-9.04344
lick	-9.04553
▁आई	-9.04747
▁रद्दी	-9.04854
▁वापस	-9.04907
▁प्रक्रिया	-9.05127
▁symbol	-9.05203
▁sent	-9.05266
Mac	-9.05492
▁पाया	-9.05493
▁सही	-9.05589
▁successfully	-9.05718
▁चिह्न	-9.05859
▁बीच	-9.0603
▁Mode	-9.06053
▁प	-9.06149
▁वैध	-9.06274
Category	-9.06389
▁होन	-9.06468
▁Contacts	-9.06563
▁given	-9.06606
▁सुरक्षित	-9.06759
▁state	-9.06759
▁चुन	-9.06812
cause	-9.0683
▁त्रुटिः	-9.06979
▁पूरा	-9.07094
▁another	-9.07169
▁Re	-9.07223
▁signature	-9.07245
o	-9.07477
▁Directory	-9.07662
▁Manager	-9.07731
▁Color	-9.07884
▁End	-9.07894
▁भेजा	-9.07942
▁स्तर	-9.07949
▁some	-9.07965
▁भाषा	-9.08013
▁filter	-9.08071
▁संग्रह	-9.08076
▁Phone	-9.08132
▁About	-9.08132
▁Current	-9.08662
▁विश्लेषण	-9.08686
▁करते	-9.0892
याद	-9.09
▁छुपाएँ	-9.09074
▁created	-9.09141
▁Status	-9.09157
ular	-9.0916
▁आवश्यक	-9.09187
NU	-9.09226
▁style	-9.09249
▁even	-9.09317
▁जिसे	-9.09359
▁Calendar	-9.09381
ic	-9.09382
▁exist	-9.0966
▁drive	-9.09667
VER	-9.09736
पर	-9.09822
डियो	-9.0998
▁Call	-9.10162
▁अस्था	-9.10478
▁AIM	-9.10696
▁मत	-9.1141
▁छापें	-9.11419
▁Toolbar	-9.11446
▁दी	-9.11732
▁main	-9.11746
▁parse	-9.11775
▁एंटर	-9.11794
▁प्राप्तकर्ता	-9.11915
▁Th	-9.12237
▁डेस्कटॉप	-9.12389
▁Debugger	-9.12389
▁GroupWise	-9.12397
▁writable	-9.12631
▁बिना	-9.12871
▁उपस्थित	-9.12903
▁What	-9.12934
▁enabled	-9.13004
▁डिबगर	-9.13005
▁changed	-9.13016
▁modify	-9.13293
▁ei	-9.13363
▁later	-9.13447
▁tab	-9.1351
▁bar	-9.13602
▁श्रेणी	-9.13734
▁Account	-9.13735
▁slot	-9.1385
▁instead	-9.14009
▁सं	-9.14021
▁पृष्ठभूमि	-9.14028
▁field	-9.14059
▁dialog	-9.14151
▁Burn	-9.14457
▁कैश	-9.14473
▁MiB	-9.14474
▁Preferences	-9.14606
▁बैठक	-9.14669
▁असफलः	-9.14846
▁Audio	-9.14967
शप	-9.15067
ION	-9.15157
▁connection	-9.15319
▁here	-9.15391
▁प्रयोक्ता	-9.15543
▁first	-9.15637
text	-9.15641
▁अलग	-9.1566
▁देख	-9.15985
▁सकी	-9.16091
▁फ्लैग	-9.16127
ाहित	-9.16129
▁साइरिलिक	-9.16279
▁installed	-9.16297
▁निर्धार	-9.16453
▁compile	-9.16524
▁toolbar	-9.16525
▁एंपेथी	-9.16557
▁बड़ा	-9.16631
गप	-9.16633
प्रतिलिपि	-9.16834
▁Cyrillic	-9.17066
फ्री	-9.17084
▁popup	-9.17321
▁about	-9.17323
▁received	-9.17421
▁mus	-9.17553
▁संकेत	-9.17573
▁header	-9.17817
▁सी	-9.17821
twe	-9.17893
▁बादशाह	-9.17908
▁Number	-9.17908
▁unknown	-9.18072
▁operation	-9.18117
▁bookmark	-9.18168
▁print	-9.18264
▁निजी	-9.1833
▁busy	-9.18438
▁Book	-9.18446
▁पॉपअप	-9.18461
▁proxy	-9.18463
▁लिखा	-9.18518
▁Id	-9.18567
▁शीर्ष	-9.18636
▁An	-9.1867
▁Date	-9.18747
▁जैसे	-9.18841
▁सामग्री	-9.19076
▁स	-9.19266
▁ऑफलाइन	-9.19629
▁सेटिंग	-9.19883
▁ट्री	-9.19989
▁API	-9.19996
▁Generic	-9.20222
▁configuration	-9.20259
▁choose	-9.20263
▁स्पूल	-9.20509
▁under	-9.20519
▁them	-9.20552
▁See	-9.20564
▁चीनी	-9.20755
▁क़िस्म	-9.20794
▁UID	-9.20929
▁complete	-9.20932
▁Value	-9.20961
▁Play	-9.21174
▁fonts	-9.21245
▁संजाल	-9.21365
▁generic	-9.21394
▁डिफ़ॉल्ट	-9.21403
▁रख	-9.21461
▁network	-9.21479
▁Command	-9.21988
▁काल	-9.21992
▁index	-9.22136
▁Description	-9.22175
▁automatically	-9.22274
▁play	-9.22275
▁Log	-9.22276
▁अपना	-9.22332
ेल	-9.22431
▁चेतावनी	-9.22448
▁work	-9.22506
▁ज़ूम	-9.22528
▁यूरोप	-9.22588
▁प्रदर्शक	-9.2259
रण	-9.226
DVD	-9.22603
m	-9.22906
▁summary	-9.23056
▁replace	-9.23069
▁MSN	-9.23095
▁l	-9.2338
▁appointment	-9.23417
▁too	-9.23423
▁Update	-9.23681
▁ICQ	-9.23695
▁layout	-9.23768
▁content	-9.23995
▁cache	-9.24033
▁Auto	-9.24069
▁अस्थ	-9.2408
UTF	-9.24152
▁HTTP	-9.24177
▁बहु	-9.24248
▁until	-9.24357
▁संवाद	-9.24357
▁Toggle	-9.24375
▁डेटा	-9.24376
▁जांचें	-9.24421
अप्रत्याशित	-9.24479
▁Out	-9.24527
▁बजाय	-9.24532
▁store	-9.24571
▁Window	-9.24648
▁Install	-9.24798
▁along	-9.24982
▁desktop	-9.25291
▁Changes	-9.25333
▁प्रॉक्सी	-9.25336
▁दो	-9.25385
▁HTML	-9.25419
▁उन	-9.25441
▁expect	-9.25543
ally	-9.25559
▁2.	-9.2561
गाडू	-9.25699
▁click	-9.25724
▁पाने	-9.25821
ि	-9.25859
▁zoom	-9.26016
▁retrieve	-9.26153
▁Gadu	-9.26174
al	-9.26183
▁डाटा	-9.26225
▁Highlight	-9.26242
▁Europe	-9.26244
▁pages	-9.2638
▁अक्षर	-9.26471
p	-9.26647
▁टॉगल	-9.26795
▁loading	-9.27131
▁Bookmarks	-9.27244
▁MIME	-9.27388
▁हुए	-9.27417
▁फ्रेम	-9.27442
▁Custom	-9.27457
▁Replace	-9.27487
▁log	-9.27565
▁कारण	-9.2761
▁change	-9.27673
ion	-9.27731
SS	-9.27864
▁attachment	-9.27899
▁Remote	-9.28319
िए	-9.28399
▁Chinese	-9.28441
चिह्न	-9.28488
▁four	-9.28687
▁Width	-9.28704
▁h	-9.28718
▁लाइब्रेरी	-9.28749
▁Accessible	-9.28755
ीकरण	-9.28817
▁Authentication	-9.28825
▁सेवा	-9.28833
किन	-9.28857
▁values	-9.28993
existing	-9.29047
▁आगे	-9.29094
▁Allow	-9.29127
▁Commit	-9.29371
rica	-9.29492
▁हु	-9.2957
▁मानक	-9.29617
▁Bookmark	-9.29627
▁रिपोर्ट	-9.3001
▁please	-9.30013
▁टैग	-9.30026
▁Assistant	-9.30043
mail	-9.30056
to	-9.30091
▁Af	-9.30277
▁sending	-9.30426
▁खोजें	-9.30456
▁insert	-9.30487
▁three	-9.30632
▁मोड्यूल	-9.30653
कुम	-9.30835
▁पैकेज	-9.31139
▁MD	-9.31195
▁हमेशा	-9.31231
▁घुमा	-9.31257
▁प्रभाव	-9.31291
▁अंतर्वस्तु	-9.31325
▁संक्रिया	-9.31364
▁रिक्त	-9.31429
2	-9.31495
निश्चि	-9.31542
कर	-9.31838
▁आउटपुट	-9.3204
▁शब्दकूट	-9.32052
▁topic	-9.32423
▁room	-9.3289
ाप्त	-9.33113
▁होस्ट	-9.33228
▁लेखक	-9.3323
▁गीत	-9.33266
each	-9.33267
▁फ़िल्टर	-9.33274
▁वर्णन	-9.33818
▁सार	-9.33828
▁table	-9.33834
▁Remember	-9.3395
▁function	-9.33951
▁व्यस्त	-9.34088
▁कचरा	-9.34251
▁accounts	-9.34508
▁वार्तालाप	-9.34628
▁Additional	-9.3471
▁पोर्ट	-9.34719
▁SIP	-9.3473
▁ठीक	-9.352
▁हाल	-9.3522
▁Diff	-9.35238
▁SOCKS	-9.35257
▁fullscreen	-9.3531
▁Messages	-9.35349
\	-9.35706
▁Only	-9.35933
▁buffer	-9.35953
▁हाशिया	-9.35953
▁नियंत्रण	-9.35979
▁published	-9.35993
▁प्रविष्टि	-9.35998
AB	-9.365
▁समाचार	-9.36638
▁फंक्शन	-9.36638
▁useful	-9.36647
▁Header	-9.36938
distribute	-9.36954
00%	-9.3702
▁move	-9.37041
ब	-9.37174
▁bug	-9.3724
▁गति	-9.37298
▁सत्ता	-9.37314
▁प्रश्न	-9.37327
▁अनुसार	-9.37473
gedit	-9.37517
▁Debug	-9.37538
▁host	-9.3758
▁module	-9.37619
▁डिबग	-9.37796
▁EOL	-9.37947
▁निवेदित	-9.38033
था	-9.3805
▁ब्राउज़र	-9.38083
ार	-9.38113
▁argument	-9.38349
▁hint	-9.38363
ंत	-9.38681
▁कमिट	-9.38687
▁'{0}'	-9.38703
▁घुमाएँ	-9.38725
▁कैमरा	-9.38764
▁विन्यस्त	-9.38797
▁Jabber	-9.38821
▁हैंः	-9.38867
▁request	-9.38984
ify	-9.39075
▁पासवर्ड	-9.3918
▁मुद्र	-9.39227
▁cards	-9.39335
▁मौसम	-9.39384
▁चाहेंगे	-9.39435
▁see	-9.39458
▁रखत	-9.39521
1	-9.39523
l	-9.39684
▁स्केल	-9.39735
▁10	-9.39916
▁डालें	-9.39962
▁Change	-9.40065
▁तरह	-9.40066
▁छपाई	-9.40093
▁सीवीएस	-9.40131
▁लाइसेंस	-9.40144
▁Rename	-9.40147
▁revision	-9.40153
▁Automatic	-9.40257
▁Module	-9.40438
PO	-9.4062
▁entry	-9.4089
▁प्रशा	-9.40981
़	-9.41009
▁संशोधन	-9.41015
▁part	-9.41402
▁संकुल	-9.41589
▁ten	-9.41638
Simulation	-9.41819
▁पिक्स	-9.41834
▁flag	-9.41873
▁Group	-9.4192
▁NNTP	-9.42249
▁गनोम	-9.4225
▁queen	-9.42273
▁अट्ठा	-9.42276
▁five	-9.42276
▁nine	-9.4228
▁टर्मिनल	-9.423
▁Title	-9.4233
▁seven	-9.42359
SE	-9.4243
▁अवधि	-9.42506
▁six	-9.42573
▁सिमुलेशन	-9.42611
▁शैली	-9.42849
▁इनपुट	-9.42866
▁Column	-9.43028
▁Chat	-9.43064
▁Ba	-9.4308
▁Breakpoint	-9.43083
▁Blank	-9.43102
▁notifications	-9.43434
पर्य	-9.43487
▁टिप्पणी	-9.43563
▁tasks	-9.43577
▁केंद्र	-9.43621
▁eight	-9.43694
▁access	-9.43707
▁Last	-9.43717
▁छोटा	-9.43739
▁build	-9.43742
▁Connector	-9.43792
▁Task	-9.44075
▁एक्स	-9.44292
▁output	-9.44304
▁J	-9.4431
▁close	-9.44375
ड	-9.44388
▁Mac	-9.44435
▁Note	-9.44486
▁अधिष्ठाप	-9.44515
▁Position	-9.44515
▁username	-9.44538
▁Vertical	-9.44574
▁seconds	-9.44644
▁saved	-9.44665
▁enable	-9.4472
▁characters	-9.4477
▁असमर्थित	-9.44853
▁Reload	-9.44971
▁over	-9.45034
▁घटक	-9.4518
▁jack	-9.45208
▁बजाएँ	-9.45229
▁Up	-9.45255
▁अनु	-9.45269
▁Java	-9.45712
▁Preview	-9.45748
R	-9.45809
▁कार्ड	-9.45884
▁Full	-9.45954
▁200	-9.46015
▁IBM	-9.46016
▁below	-9.46203
▁पेज	-9.46301
▁game	-9.46332
an	-9.46352
▁सीमा	-9.4642
▁पैरामीटर	-9.46547
▁accept	-9.46636
▁प्रसंग	-9.46745
▁बदले	-9.468
▁शब्द	-9.4685
ंकि	-9.46901
▁चुनेंः	-9.4707
▁FI	-9.47128
▁extension	-9.47141
▁rename	-9.4743
▁trash	-9.47498
▁स्क्रॉल	-9.4752
▁क्लिपबोर्ड	-9.47544
▁कोण	-9.47552
▁loaded	-9.47599
▁तंत्र	-9.47666
CH	-9.47778
▁Stop	-9.47782
▁चुने	-9.47793
TNE	-9.47795
▁mbox	-9.47814
▁#	-9.48042
ation	-9.48276
▁जायेगा	-9.48284
▁अनुपस्थित	-9.48306
▁custom	-9.48392
▁http	-9.48624
मेल	-9.48814
ill	-9.48859
▁दिन	-9.48875
▁Local	-9.48928
▁FOR	-9.48986
▁Junk	-9.49013
▁match	-9.49024
▁बाध्य	-9.49035
▁प्रमाण	-9.4905
▁running	-9.49064
%%)	-9.49072
O	-9.49102
▁वाला	-9.49108
▁वर्तनी	-9.49307
ww	-9.49342
RAN	-9.49364
▁packages	-9.49372
▁तैयार	-9.49816
▁लाइन	-9.49828
▁transfer	-9.49943
▁खाते	-9.50019
▁WI	-9.5004
▁पहचान	-9.50247
▁एकिगा	-9.50609
▁external	-9.50641
▁accessible	-9.50654
▁समाप्ति	-9.50728
▁बन्द	-9.5078
▁विनिमय	-9.50832
UL	-9.50925
▁notification	-9.51087
▁install	-9.51132
▁वाक	-9.5116
▁where	-9.51361
▁खाका	-9.51376
▁चुका	-9.51406
▁खाँचा	-9.51411
▁Weather	-9.51426
▁terms	-9.51448
▁चित्र	-9.51535
▁Room	-9.51596
नाम	-9.51684
▁interface	-9.51841
हें	-9.51901
MER	-9.51953
▁run	-9.52032
▁Google	-9.52085
▁नहला	-9.52171
▁लेबल	-9.52188
▁छक्का	-9.52194
▁items	-9.52215
▁permanently	-9.52252
▁burned	-9.52339
ष्ट	-9.52425
▁AN	-9.52425
▁On	-9.52438
▁screen	-9.5247
ंकेति	-9.525
ANT	-9.52549
▁scroll	-9.52614
▁दे	-9.52647
▁authenticate	-9.52742
▁row	-9.52913
▁update	-9.52955
▁पंजा	-9.52979
UR	-9.52984
▁WAR	-9.52999
▁credits	-9.53063
कापी	-9.53083
coming	-9.53091
▁net	-9.53095
▁lock	-9.53187
सीडी	-9.53401
▁directories	-9.53455
▁reminder	-9.53463
▁काम	-9.53659
▁पिछल	-9.53819
▁तिक्की	-9.53829
▁browser	-9.53843
▁Missing	-9.53846
▁Horizontal	-9.53864
▁repository	-9.53866
ame	-9.54307
▁base	-9.54318
ve	-9.54524
▁ऑनलाइन	-9.54648
▁Bo	-9.54677
▁स्थिर	-9.54756
▁links	-9.548
▁क्यो	-9.54805
▁उपयोगकर्ता	-9.54846
▁प्रविष्ट	-9.5487
▁king	-9.55142
▁searching	-9.55258
▁Scale	-9.55261
▁don	-9.5527
▁ताश	-9.55279
secure	-9.55333
▁Trash	-9.55464
▁मेन्यू	-9.55473
ty	-9.55485
▁ब्रेकपाइंट	-9.55509
▁रखन	-9.55653
dditional	-9.557
▁कई	-9.56024
▁म	-9.56087
▁सब	-9.56118
▁उस	-9.56264
▁disk	-9.56287
▁least	-9.56292
▁cdrecord	-9.56328
▁brasero	-9.56329
▁clipboard	-9.56337
▁Contents	-9.56602
and	-9.56895
▁attach	-9.57044
▁बेगम	-9.57107
▁अंदर	-9.57109
▁आने	-9.57111
▁Retriev	-9.57157
▁"{0}"	-9.5717
▁Connection	-9.57184
▁Center	-9.57421
▁बांट	-9.57494
▁GTK	-9.5756
▁प्रति	-9.57633
▁manual	-9.57972
▁संदर्भ	-9.57993
▁स्निपेट	-9.58004
▁जेनेरिक	-9.58004
▁Mark	-9.5819
ough	-9.58232
▁theme	-9.58257
▁frame	-9.5848
▁v	-9.58575
oogle	-9.58628
▁स्वीकारें	-9.58634
खंड	-9.58753
▁चालू	-9.58808
▁tag	-9.58881
▁European	-9.58884
▁साइट	-9.58998
▁continue	-9.5917
▁parent	-9.59182
▁टॉप	-9.5924
▁Hebrew	-9.59257
▁import	-9.59457
बॉक्स	-9.59565
▁सरल	-9.59586
▁Reset	-9.59698
▁इक्का	-9.59714
▁Saving	-9.59722
▁रिकार्ड	-9.59723
▁अनुमान	-9.5976
TIC	-9.59871
▁चुनी	-9.59928
▁Target	-9.59941
▁जावा	-9.59967
▁top	-9.60008
▁चुना	-9.60238
--	-9.60244
▁active	-9.60401
▁Insert	-9.60459
▁दोष	-9.60524
▁मनपसंद	-9.60576
इस्त	-9.60591
▁यूरोपीय	-9.60594
▁property	-9.60597
▁Epiphany	-9.60598
▁through	-9.60607
▁Browser	-9.60624
▁भिन्न	-9.60724
▁Filter	-9.60807
निश्च	-9.60835
yahoo	-9.60969
▁Apply	-9.60978
▁बिंब	-9.60979
्	-9.61032
▁arguments	-9.61095
▁वर्ण	-9.61182
h	-9.61325
▁lost	-9.61422
▁child	-9.61435
▁बैकेंड	-9.61453
▁घुसाएँ	-9.61453
▁जाँचें	-9.61506
▁standard	-9.61506
ir	-9.61794
▁Co	-9.6184
▁लंबवत	-9.61913
▁hop	-9.6194
▁requests	-9.61966
▁commit	-9.6199
रूप	-9.62012
isofs	-9.62198
ेमाल	-9.62293
▁खिसकाएँ	-9.6235
▁ताला	-9.62404
▁Settings	-9.6264
▁भेजन	-9.62642
▁second	-9.62649
▁Object	-9.62679
▁languages	-9.627
▁समा	-9.62957
▁completed	-9.63151
▁गुलाम	-9.63212
▁Height	-9.63233
▁pixels	-9.63316
▁provided	-9.63346
▁Table	-9.63455
▁Continue	-9.63511
60	-9.63627
▁पढ़	-9.6379
:/	-9.64029
▁implie	-9.64067
▁घर	-9.6412
▁परिणाम	-9.64128
▁Switch	-9.64128
▁हिब्रू	-9.64128
▁संसाधन	-9.6413
▁हाइलाइट	-9.6414
▁Background	-9.64163
आउट	-9.64277
▁SO	-9.64471
▁+)	-9.64472
िर	-9.6459
▁camera	-9.64625
working	-9.64703
▁जनक	-9.64782
▁आईडी	-9.64809
▁Patch	-9.64837
▁Tool	-9.64911
▁word	-9.64946
▁Q	-9.64994
▁4	-9.65005
▁क्रैश	-9.65019
▁जोड़ेगा	-9.6506
▁management	-9.65072
▁Fullscreen	-9.65072
G	-9.65209
▁8	-9.65341
▁15	-9.65388
▁Load	-9.65652
▁side	-9.65715
ेश	-9.65763
▁स्कैन	-9.65894
▁events	-9.65905
▁कनेक्ट	-9.65909
▁Xlib	-9.65924
▁विजेट	-9.65937
▁मौज़ूद	-9.65952
▁startup	-9.65972
▁ऊंचाई	-9.66006
▁स्वीकार	-9.66126
फी	-9.66222
▁Forward	-9.66259
▁did	-9.66273
ight	-9.66566
▁Photo	-9.66571
▁app	-9.66648
▁फलक	-9.66717
inimum	-9.66745
▁245	-9.66816
▁SHA	-9.66853
▁speed	-9.66875
▁जायें	-9.66886
▁Discard	-9.6689
▁occurred	-9.66899
▁हस्तांतरण	-9.66908
▁Details	-9.6691
▁canceled	-9.66923
aximum	-9.66964
▁Devhelp	-9.67062
V	-9.67181
▁ace	-9.67382
▁inside	-9.67414
लिए	-9.67452
▁spool	-9.67481
▁Application	-9.67566
▁Port	-9.67697
▁Bug	-9.67742
▁Quit	-9.67772
▁python	-9.67811
▁Unicode	-9.67826
▁debugger	-9.67832
▁Trace	-9.67834
▁duration	-9.67836
▁प्रबंधन	-9.67844
▁लंबाई	-9.67853
▁उपस्थिति	-9.67864
▁Subject	-9.67959
▁translat	-9.67969
▁Split	-9.67993
▁ज	-9.68041
▁edit	-9.68091
▁IP	-9.68153
▁गैर	-9.68252
▁snippet	-9.68372
▁permission	-9.68397
▁played	-9.68428
▁windows	-9.68499
▁description	-9.68522
▁most	-9.68586
▁Writing	-9.68766
▁missing	-9.68782
▁checksum	-9.68783
▁Take	-9.68862
▁>	-9.68884
▁Cancel	-9.68926
व्यस्त	-9.69019
▁मिनट	-9.69105
▁added	-9.69212
▁Inc	-9.69258
नी	-9.69358
▁6	-9.69403
▁Author	-9.69426
▁लिखना	-9.696
▁Micro	-9.69602
▁USA	-9.69647
▁सप्ताह	-9.69704
▁Deal	-9.69709
▁Evince	-9.69717
▁closing	-9.6972
▁प्रोटोकॉल	-9.69733
▁service	-9.69738
▁indentation	-9.69746
▁allow	-9.6985
▁area	-9.70111
▁प्रेषक	-9.70131
96	-9.70192
soft	-9.70193
utomatically	-9.70221
windows	-9.70436
MIME	-9.70479
▁Rotat	-9.70582
▁लकीर	-9.70626
▁अब	-9.70665
▁instance	-9.70706
▁apply	-9.70917
▁100%	-9.71282
▁example	-9.71319
ज़	-9.71363
▁r	-9.71428
ston	-9.71509
▁खराब	-9.7165
▁append	-9.71702
▁छोड़	-9.71824
▁true	-9.7192
▁photos	-9.71922
▁debugging	-9.71929
▁box	-9.7204
▁removed	-9.72055
▁stored	-9.72096
्सर	-9.72102
्ट	-9.72179
▁texture	-9.72238
इन	-9.72369
▁Icon	-9.72501
▁back	-9.72544
▁बनाए	-9.72559
▁Keep	-9.72577
▁मूल्य	-9.72601
▁डेलिगेट	-9.72635
▁setting	-9.72725
▁recipients	-9.72788
▁छाप	-9.72915
▁तुल्यकालन	-9.7293
▁उपभोक्ता	-9.7307
▁अनुस	-9.73153
▁determine	-9.73436
▁गुप्त	-9.7346
▁पत्ता	-9.73542
▁बैकअप	-9.73587
▁गंतव्य	-9.73603
▁Revision	-9.73624
▁दूर	-9.73648
▁Creating	-9.73662
▁displayed	-9.73837
▁shown	-9.73947
▁ढूंढ	-9.73948
it	-9.74172
▁प्रेषित	-9.74206
▁स्क्रिप्ट	-9.74253
▁नोट	-9.74375
▁passwords	-9.7443
IBM	-9.74442
▁हुई	-9.74458
▁Undo	-9.74576
▁Clutter	-9.74612
▁दिखाएं	-9.74613
▁कार्यशील	-9.74629
▁Python	-9.74664
▁min	-9.74779
▁Package	-9.7522
▁protocol	-9.75239
▁tabs	-9.75336
▁provide	-9.75465
▁locally	-9.75676
▁काटें	-9.75728
▁Selection	-9.75752
these	-9.7589
प	-9.75891
▁उपयोक्तानाम	-9.75914
▁द	-9.76066
',	-9.76083
▁now	-9.76165
Common	-9.76242
▁वाल	-9.76371
▁recent	-9.76513
एँ	-9.76528
▁Convert	-9.76541
▁diff	-9.76631
▁appear	-9.76638
▁rotation	-9.76657
▁अंतराल	-9.76658
▁Pa	-9.76771
us	-9.76787
).	-9.76894
▁cursor	-9.76906
▁disable	-9.76997
link	-9.77039
▁Is	-9.77082
IS	-9.77251
▁राज	-9.77332
▁Tasks	-9.77436
▁सहेजन	-9.77463
▁root	-9.77621
▁यूनिकोड	-9.77672
▁भूमिका	-9.77678
▁अनुपलब्ध	-9.77681
▁Repository	-9.77697
▁Configure	-9.77698
▁51	-9.77771
▁reg	-9.77807
▁संलग्न	-9.77952
▁targets	-9.78104
▁n	-9.78256
▁MA	-9.78306
▁signed	-9.78428
▁रूट	-9.78635
▁देगा	-9.78674
▁Floor	-9.78684
▁Revert	-9.78701
▁उपयुक्त	-9.78714
▁वरीयताएँ	-9.78726
▁निर्देशांक	-9.78736
▁Incoming	-9.78769
▁Block	-9.78931
▁execute	-9.78933
▁large	-9.78997
▁पिछले	-9.79104
▁करे	-9.79139
▁ताज	-9.79162
▁join	-9.79222
▁Warning	-9.79362
▁Right	-9.79407
▁Key	-9.79421
▁रह	-9.79604
▁STUN	-9.79713
any	-9.79727
▁पश्चात	-9.79754
▁Street	-9.79758
▁Always	-9.79769
▁ज्यादा	-9.79834
THO	-9.79952
desktop	-9.79991
▁लॉगिन	-9.80045
लोड	-9.80065
nautilus	-9.80353
▁package	-9.80524
▁उन्	-9.8061
▁tableau	-9.80695
▁स्लाइस	-9.80816
▁उप	-9.81182
▁क्लाइंट	-9.81193
)?	-9.81217
▁तब	-9.81226
▁permissions	-9.81299
▁form	-9.81354
▁Merge	-9.81497
▁right	-9.81515
▁Force	-9.81538
▁Left	-9.81849
▁Clean	-9.81874
▁संरचना	-9.81889
▁संरेखण	-9.8189
▁छवियाँ	-9.81891
▁एनकोडिंग	-9.81895
▁वैश्विक	-9.819
ो	-9.81919
▁background	-9.81923
▁corrupted	-9.81931
▁पढ़न	-9.81971
▁Row	-9.82055
▁विकल्पः	-9.82077
▁Viewer	-9.8209
▁correct	-9.82358
▁Checking	-9.82365
▁take	-9.82393
▁online	-9.82518
▁लेखन	-9.82544
▁Normal	-9.82599
▁headers	-9.82675
वर्त	-9.82676
ess	-9.82682
▁specify	-9.82705
▁order	-9.82727
▁reading	-9.82882
▁full	-9.82955
▁अल्फा	-9.82958
▁चव्वा	-9.82958
▁Western	-9.82986
▁सत्यापित	-9.83008
name	-9.83012
▁coordinate	-9.83012
▁Simplified	-9.83018
▁requires	-9.83129
▁ask	-9.83187
▁वह	-9.83389
हित	-9.83473
▁चला	-9.83481
▁सेकेंड	-9.83591
▁occurrence	-9.83705
लिख	-9.83707
▁औ	-9.83736
file	-9.83801
▁Don	-9.83948
▁जाएगी	-9.8407
lin	-9.84088
▁driver	-9.84196
▁चाहत	-9.84348
▁XMP	-9.84589
▁suit	-9.8472
स्ट्रीम	-9.84745
de	-9.84754
▁आयत	-9.84785
▁point	-9.84797
▁अभ	-9.8487
▁पत्र	-9.84918
▁उपनाम	-9.8504
▁90	-9.85078
▁प्लग	-9.85129
▁दिशा	-9.85149
▁length	-9.85181
▁मेलबाक्स	-9.85204
▁Base	-9.85212
▁Configuration	-9.85229
▁समायोज	-9.85237
▁पुरान	-9.8531
▁stream	-9.85325
▁देन	-9.85457
▁मेजबान	-9.85684
▁Some	-9.85787
▁Paste	-9.86054
▁Browse	-9.86257
▁जैबर	-9.86264
▁बाजू	-9.86264
▁होगी	-9.86277
▁Leave	-9.86287
▁इनक	-9.86288
▁Empty	-9.86291
▁5	-9.86303
▁Client	-9.86308
▁gallery	-9.86319
▁प्रकाशित	-9.86325
▁Encryption	-9.86342
▁old	-9.86375
8)	-9.86674
▁शेष	-9.86724
इस	-9.86966
libgnomeui	-9.86985
▁Fit	-9.87119
▁स्ट	-9.8715
▁एट	-9.87167
▁पीछे	-9.87186
▁चीज	-9.8724
▁hold	-9.87278
▁gpg	-9.87365
▁दुक्का	-9.87438
▁मध्य	-9.87456
▁डाकपेटी	-9.87458
हाँ	-9.87475
▁profile	-9.87528
तर	-9.8765
▁कार्यालय	-9.8768
कल	-9.88017
▁With	-9.88027
▁नय	-9.88105
UT	-9.88192
▁रंजन	-9.88449
दा	-9.8855
▁आवरण	-9.88553
▁query	-9.8857
▁चिपकाएँ	-9.88598
▁JavaScript	-9.88622
▁token	-9.88662
▁संभव	-9.88848
▁लिया	-9.88995
v	-9.88995
ती	-9.89142
▁Tag	-9.89313
है	-9.89437
▁चेकसम	-9.89731
▁Version	-9.89759
▁written	-9.89759
▁quality	-9.8976
▁Git	-9.89779
ifth	-9.89818
▁Requested	-9.89821
▁नियम	-9.89867
▁block	-9.89962
▁बे	-9.89977
number	-9.90012
▁17	-9.90393
▁title	-9.90398
▁Blu	-9.90533
▁component	-9.90552
ये	-9.90681
▁डिफ	-9.90852
▁private	-9.90911
फाइल	-9.9092
slot	-9.90953
▁ट्रे	-9.90957
▁प्रगति	-9.91016
▁tool	-9.91084
▁wish	-9.91095
▁printer	-9.91187
▁am	-9.91336
▁Recent	-9.91402
▁distribute	-9.91442
▁receive	-9.91479
IL	-9.9159
ID	-9.91751
red	-9.91859
▁via	-9.91859
▁Global	-9.91954
र्रवा	-9.91973
▁crash	-9.92025
▁foundation	-9.92031
▁बफर	-9.92042
▁Content	-9.92048
use	-9.92054
▁मीडिया	-9.92111
▁मिलाएं	-9.92118
▁Pause	-9.92122
for	-9.92164
▁Reply	-9.92303
▁Initial	-9.92399
▁URIs	-9.9244
▁थी	-9.92475
user	-9.92634
el	-9.92799
कि	-9.92809
जोड़ना	-9.9283
▁character	-9.92955
▁org	-9.93121
▁long	-9.93162
CD	-9.93204
▁connected	-9.93262
▁DVDs	-9.93265
▁yet	-9.93269
▁Drag	-9.93276
▁launch	-9.93277
▁सहायता	-9.93314
▁अधिभार	-9.93314
▁Standard	-9.9334
▁unavailable	-9.93356
▁Shared	-9.93381
▁रीसेट	-9.93468
▁k	-9.93511
▁Mozilla	-9.93526
▁Currently	-9.93601
ंट	-9.93835
डाक	-9.9394
utils	-9.94091
धान	-9.94091
▁lib	-9.94394
▁go	-9.94426
▁level	-9.94456
▁श्र	-9.94489
▁junk	-9.94494
▁Top	-9.94504
▁गिनती	-9.94516
▁usage	-9.94518
▁यूआरआई	-9.94532
▁कॉलम	-9.94626
▁किनार	-9.94688
▁\\	-9.9476
▁उत्तर	-9.9482
▁names	-9.94842
automake	-9.94899
हस्ताक्षरित	-9.94929
ीय	-9.94945
▁गलती	-9.95019
लिंक	-9.95025
▁स्थ	-9.95123
H	-9.95173
▁सेटअप	-9.95202
▁result	-9.95376
▁animation	-9.95397
फ़	-9.95503
▁patch	-9.95535
डीवीडी	-9.95589
▁भरें	-9.95612
▁Talk	-9.95733
▁Skype	-9.95749
▁बेमेल	-9.95756
▁समस्या	-9.95765
▁स्काइप	-9.95765
तार	-9.95818
▁जैस	-9.95916
▁None	-9.96008
▁पूर्व	-9.96025
▁servers	-9.96061
फ़ोल्डर	-9.96147
▁results	-9.96171
▁पूछें	-9.96188
ाव	-9.96234
▁पार	-9.96239
व्य	-9.96323
▁Day	-9.96337
▁पथः	-9.96349
▁place	-9.96374
▁Cursor	-9.96436
▁By	-9.96519
-8	-9.96536
▁Device	-9.96611
▁expression	-9.96642
▁Language	-9.96644
परिभाषित	-9.96687
▁When	-9.96774
▁GiB	-9.96942
▁Signature	-9.96943
▁split	-9.9699
▁Busy	-9.96999
▁Korean	-9.97013
▁दीर्घा	-9.97016
▁अपरिचित	-9.97025
▁cdrdao	-9.97029
▁History	-9.97032
▁अनुस्मारक	-9.97043
▁playlist	-9.97045
▁विशेषता	-9.97111
▁गुम	-9.97215
dir	-9.97229
▁author	-9.97311
▁बजान	-9.97382
▁अगल	-9.97433
▁ए	-9.97629
▁requested	-9.97706
टा	-9.97749
▁clear	-9.97942
").	-9.97945
▁sendmail	-9.98039
immed	-9.98109
▁XML	-9.98205
▁जगह	-9.98205
▁गूगल	-9.98239
▁टाइप	-9.9824
▁plain	-9.98261
कर्ता	-9.98263
▁Inbox	-9.98269
▁Summary	-9.98293
▁port	-9.98297
▁terminal	-9.98299
▁expired	-9.98299
▁रूपांतरण	-9.983
▁संवेदनशील	-9.98306
▁बिंदु	-9.98354
▁actions	-9.98405
▁संकेतक	-9.98408
▁UTF	-9.98419
ease	-9.98508
▁नयी	-9.98571
वट	-9.98649
▁अग्रसारित	-9.98825
X	-9.98903
वेयर	-9.99023
टोर	-9.99052
▁Download	-9.99159
▁Category	-9.99194
▁icon	-9.99339
▁Personal	-9.99342
▁Game	-9.9935
▁चर	-9.99484
▁छूट	-9.99485
▁जन्मदिन	-9.99524
▁Host	-9.99528
▁debug	-9.99545
0%	-9.99551
▁कोरियाई	-9.99569
▁निर्यात	-9.9957
▁निर्माण	-9.99571
▁Ukrainian	-9.99587
▁भरने	-9.99595
▁shader	-9.99608
एस	-9.99634
RC	-9.99679
▁जबतक	-9.99693
▁अवत	-9.9974
▁numbers	-9.99744
▁MH	-9.99844
▁मुक्त	-9.99876
▁Back	-9.99938
▁center	-9.99994
▁defined	-10
▁जाती	-10.0005
▁मौ	-10.0047
▁Any	-10.0062
▁बता	-10.0079
▁SASL	-10.0082
▁स्वयं	-10.0084
▁मिटाने	-10.0084
▁hidden	-10.0085
▁Office	-10.0085
▁जोड़ा	-10.0086
▁अनुरूप	-10.0087
▁assistant	-10.0088
▁नियमित	-10.01
▁there	-10.0104
हाल	-10.0104
▁हों	-10.0111
8	-10.0121
▁फुल	-10.0124
▁TLS	-10.0137
▁प्राथमिकता	-10.0137
▁Plugins	-10.0149
▁वरीयता	-10.0161
▁चरण	-10.017
rajeshkajha	-10.0174
nexpected	-10.0175
▁Field	-10.0176
k	-10.0194
▁जोड़न	-10.0201
▁तत्व	-10.0207
▁label	-10.021
▁exit	-10.0211
▁PKCS	-10.0213
▁डोमेन	-10.0215
▁way	-10.0218
ोर	-10.0218
▁Session	-10.0218
▁Available	-10.022
▁integrity	-10.0221
▁correctly	-10.0222
▁signal	-10.0224
▁away	-10.0225
▁प्राधिकार	-10.0227
▁photo	-10.0239
▁इं	-10.0244
if	-10.0288
▁Memo	-10.0308
▁encoding	-10.0313
5%	-10.0314
▁इसका	-10.032
▁visible	-10.0331
gtk	-10.0332
▁गयाः	-10.0333
▁restore	-10.0342
▁सूट	-10.0343
▁branch	-10.0347
▁गहराई	-10.0348
▁bottom	-10.035
▁channel	-10.0351
efore	-10.0352
▁template	-10.0352
▁manually	-10.0355
▁q	-10.0365
HTML	-10.0368
बद्ध	-10.0373
▁वेबसाइट	-10.0375
hat	-10.0378
▁मु	-10.038
pool	-10.0398
▁videos	-10.0401
▁vertical	-10.0401
pecify	-10.0407
▁जंक	-10.0414
▁programs	-10.0422
▁follow	-10.043
▁Symbol	-10.0445
▁हर	-10.0445
▁प्रकारः	-10.0451
Disc	-10.0452
▁picture	-10.0453
0	-10.0466
▁Completed	-10.0469
moving	-10.0477
▁SDL	-10.0478
▁अरबी	-10.0482
▁संचालन	-10.0485
▁जायेगी	-10.0485
▁Favorite	-10.0488
▁प्रतीक्षा	-10.0489
▁saving	-10.0489
▁presentation	-10.049
▁performed	-10.0494
मान्य	-10.05
▁बनान	-10.0517
िया	-10.0517
▁downloads	-10.0522
▁Mailbox	-10.0523
▁आज	-10.0529
▁दूसरा	-10.0541
D	-10.0545
▁देखन	-10.0567
▁हटाएं	-10.0574
mac	-10.0578
▁Event	-10.0581
IF	-10.0586
FILE	-10.0589
▁filters	-10.059
▁Sending	-10.0591
no	-10.0613
▁चैनल	-10.0618
▁Proxy	-10.062
सूची	-10.062
▁निवेदन	-10.0622
▁Active	-10.0623
▁denied	-10.0623
▁Offline	-10.0623
▁anyway	-10.0624
▁browsing	-10.0624
▁प्रोटोकाल	-10.0625
▁algorithm	-10.0625
▁प्रस्थिति	-10.0625
▁Watch	-10.0631
▁Accounts	-10.0633
▁TO	-10.0639
▁Items	-10.0642
▁Arabic	-10.0643
▁Temporar	-10.0652
▁बनाई	-10.0652
▁parameters	-10.0657
▁7	-10.0659
▁tracks	-10.0669
च	-10.07
entral	-10.0705
▁configure	-10.0723
▁minutes	-10.0727
http	-10.073
▁दस्ती	-10.0731
▁स्लाइड	-10.075
▁tools	-10.0751
▁First	-10.0759
▁Glade	-10.0759
▁Adjust	-10.076
▁उभारें	-10.076
▁क्षमता	-10.0761
▁जापानी	-10.0762
▁Try	-10.0762
▁encrypted	-10.0763
▁रेपोसिटरी	-10.0763
ीसवां	-10.0764
▁पुस्तचिह्न	-10.0764
▁पुनर्नामकरण	-10.0764
नहीं	-10.0771
▁Turkish	-10.0774
्फ	-10.0783
ting	-10.0785
▁media	-10.0789
वी	-10.0789
ex	-10.0797
ng	-10.0816
▁tags	-10.0817
▁Format	-10.083
E	-10.0847
▁reply	-10.086
▁conversation	-10.0866
ke	-10.0872
W	-10.088
▁control	-10.0888
▁आगत	-10.0896
▁disabled	-10.0898
▁डी	-10.0901
ेड	-10.0901
▁Network	-10.0902
▁विएतनामी	-10.0903
▁Japanese	-10.0903
▁verify	-10.0904
▁Vietnamese	-10.0905
▁statusbar	-10.0905
▁Sort	-10.0905
▁disconnected	-10.0906
▁implemented	-10.0907
▁चाल	-10.0912
▁समर्थ	-10.0918
11	-10.0919
▁feature	-10.0922
▁50	-10.0938
▁तुर्की	-10.0939
his	-10.0948
▁site	-10.0949
▁client	-10.0949
▁From	-10.0953
Location	-10.0967
arran	-10.0974
se	-10.0981
▁पुनःप्राप्त	-10.1006
सिफर	-10.101
▁Card	-10.102
▁विरोध	-10.1028
":	-10.1034
▁own	-10.1037
्य	-10.1037
7	-10.1037
▁क्लिप	-10.1042
▁प्रथम	-10.1042
▁पायथन	-10.1042
▁Angle	-10.1046
▁Traditional	-10.1048
▁alignment	-10.1049
▁returned	-10.1049
▁panel	-10.105
▁पहला	-10.105
▁सॉफ्ट	-10.1054
▁sender	-10.1056
▁नियत	-10.1065
▁Valid	-10.1066
▁every	-10.1073
▁उलटें	-10.1073
▁निर्देशिकाः	-10.1083
▁Topic	-10.1086
▁जिसमे	-10.1096
▁forward	-10.1105
करण	-10.1113
search	-10.1115
▁परिवर्तित	-10.1134
कार्य	-10.1136
▁spaces	-10.1162
▁मेक	-10.117
▁days	-10.1173
▁Elm	-10.1181
▁संदेशः	-10.1183
▁java	-10.1185
▁Today	-10.1188
▁बर्स्ट	-10.1189
▁aborted	-10.119
▁Leaving	-10.119
▁stage	-10.1191
▁developers	-10.1197
▁मिटाया	-10.12
means	-10.1204
hould	-10.1209
▁updated	-10.1209
read	-10.1211
(.	-10.1225
▁अग्रेषित	-10.124
▁who	-10.1248
▁completion	-10.1253
▁IM	-10.126
▁GL	-10.1263
▁etc	-10.1268
cific	-10.1268
▁week	-10.129
▁problem	-10.1296
▁हटान	-10.1318
▁case	-10.132
▁highlight	-10.1322
स्क्रीन	-10.1326
▁एटल	-10.1329
▁टाइम	-10.1332
▁Buddy	-10.1334
▁GnuPG	-10.1334
▁अनजान	-10.1334
rop	-10.1334
▁Export	-10.1336
▁properly	-10.1338
▁encryption	-10.1339
▁विषयवस्तु	-10.1339
▁destination	-10.1339
▁off	-10.1344
▁EUC	-10.1345
▁Folders	-10.1358
ray	-10.1361
▁Profile	-10.1368
▁icons	-10.1373
ेषण	-10.1388
▁ने	-10.1389
▁गईः	-10.1391
▁Entering	-10.1396
▁Refresh	-10.14
बार	-10.14
URI	-10.1409
▁स्	-10.1426
▁उ	-10.1434
N	-10.1449
▁सहभागी	-10.1462
▁supports	-10.1467
F	-10.1479
directory	-10.1479
▁Sync	-10.148
▁शाखा	-10.1481
▁Baltic	-10.1484
▁Issuer	-10.1484
▁वेबकैम	-10.1484
TH	-10.1486
▁Birthday	-10.1487
▁व्यक्तिगत	-10.1487
▁unexpectedly	-10.1489
▁जावास्क्रिप्ट	-10.1489
▁unsupported	-10.149
▁Signal	-10.1493
▁USE	-10.1494
▁दिखाय	-10.1511
▁VCD	-10.1523
ll	-10.1528
▁स्वीकृत	-10.153
▁छुप	-10.1542
4	-10.1556
New	-10.1561
▁स्थापित	-10.1562
▁2.0	-10.1566
as	-10.1569
▁horizontal	-10.1578
ich	-10.1579
्त	-10.1594
▁Function	-10.1597
▁सुरक्षा	-10.1604
▁सदस्य	-10.1609
▁blank	-10.1619
▁आमंत्रण	-10.1628
▁दर्ज	-10.1633
▁Cheese	-10.1635
▁अतरफलक	-10.1635
time	-10.1636
▁Library	-10.1637
▁Comment	-10.1637
▁interval	-10.1638
▁libraries	-10.1638
▁पटल	-10.1647
ेनी	-10.166
▁stash	-10.1664
▁तेज	-10.1665
▁activated	-10.1667
going	-10.1675
Insert	-10.1685
▁'(	-10.169
▁दोनों	-10.1717
▁लड़ी	-10.1718
▁overwrit	-10.172
▁Makefile	-10.1722
▁फाइलें	-10.1725
%%	-10.1727
ह	-10.1748
काल	-10.1753
Object	-10.1763
▁ह	-10.1775
▁reload	-10.1782
▁PATH	-10.1785
▁quit	-10.1786
▁प्रोफाइल	-10.1787
▁Read	-10.1788
▁उन्नत	-10.1789
▁अनुवाद	-10.1789
▁हिस्से	-10.1789
▁failure	-10.179
▁सॉलिटेयर	-10.1791
toring	-10.1794
▁बाल्टिक	-10.1801
▁दूरी	-10.1808
▁non	-10.1825
▁खोलन	-10.1841
▁डिबगिंग	-10.1841
▁sites	-10.1855
▁codec	-10.1859
देखें	-10.1863
lso	-10.1863
▁कारक	-10.1873
▁rooms	-10.1879
▁मूलभूत	-10.1882
ेशन	-10.1887
▁Role	-10.19
ient	-10.1904
Big	-10.1905
वेस्टर्न	-10.1905
keep	-10.1905
▁widget	-10.1906
▁resource	-10.1909
▁Meeting	-10.1918
▁context	-10.1921
कारी	-10.1924
▁St	-10.1925
▁de	-10.1928
▁कं	-10.1935
▁RW	-10.1936
ली	-10.1936
▁Dj	-10.1937
}	-10.1939
▁Thai	-10.1942
▁बड्डी	-10.1943
▁Signer	-10.1947
▁deleting	-10.1948
▁पहुंचनीय	-10.1948
▁Bugzilla	-10.1949
▁Parameters	-10.1949
▁वस्तुएँ	-10.1949
▁समान	-10.1951
▁reason	-10.1954
▁जोकर	-10.1956
▁16	-10.1967
लेखन	-10.1968
ent	-10.1968
croll	-10.1977
य	-10.1979
▁writing	-10.1986
▁cipher	-10.1986
फलक	-10.2
▁auto	-10.2007
▁nl	-10.2007
ET	-10.2009
loading	-10.2029
▁documents	-10.2034
card	-10.2043
▁एव	-10.205
▁breakpoint	-10.2067
▁st	-10.207
▁language	-10.2072
▁perform	-10.2098
▁आवाज	-10.2099
▁फोकस	-10.21
▁नमूना	-10.2102
▁सन्देश	-10.2104
▁इनबाक्स	-10.2105
▁sync	-10.2108
▁Manage	-10.2109
▁suite	-10.2111
▁down	-10.212
▁due	-10.2121
▁sequence	-10.2123
▁creat	-10.2132
▁Delegate	-10.2136
▁केंद्रित	-10.2137
▁वे	-10.2138
rran	-10.2152
▁won	-10.2156
री	-10.2159
▁100	-10.2176
ही	-10.2178
▁games	-10.2185
▁download	-10.2209
ulk	-10.2216
ाने	-10.2219
ेदारी	-10.2228
▁Attachment	-10.2228
▁spell	-10.2239
▁मेटा	-10.2251
▁हल	-10.2253
▁वर्षगांठ	-10.2253
▁Branch	-10.2262
▁जमावट	-10.2264
▁Business	-10.2267
▁अगले	-10.2293
▁limit	-10.2315
▁चलान	-10.2317
▁my	-10.2335
▁wait	-10.2336
see	-10.2336
▁displaying	-10.234
बैठक	-10.2362
ive	-10.2381
▁One	-10.2382
▁ब्राउज़	-10.2416
▁संतति	-10.2427
▁voice	-10.2427
▁Greek	-10.2427
▁डिवाइस	-10.2428
▁बातचीत	-10.2428
▁trigger	-10.2429
▁आवृत्ति	-10.2429
▁दोहराएँ	-10.243
▁पुनर्प्राप्त	-10.2431
▁setup	-10.2431
▁323	-10.2431
▁Copyright	-10.2431
▁Signing	-10.2438
▁प्रत्येक	-10.2442
▁reserve	-10.2449
sing	-10.2457
supported	-10.2468
▁My	-10.2481
शीर्षक	-10.2481
▁व्यक्ति	-10.2482
▁शीर्षकः	-10.2487
▁Vala	-10.2487
▁Sound	-10.2493
▁मिटान	-10.2497
ral	-10.2499
▁प्रबंध	-10.25
▁CDs	-10.251
▁प्रदर्शन	-10.2519
▁OWA	-10.2521
▁सिर	-10.2531
▁मिलान	-10.2548
▁अस्वीकार	-10.2554
▁logs	-10.2555
▁ekiga	-10.2557
mmc	-10.2559
▁song	-10.2577
▁pass	-10.258
A	-10.2585
▁compil	-10.2587
▁मूल	-10.259
▁फोटो	-10.2591
System	-10.2593
▁Level	-10.2593
▁mouse	-10.2593
▁टूट	-10.2593
▁सोर्स	-10.2593
ओर	-10.2594
▁Pass	-10.2594
▁सुसंगत	-10.2595
▁lookup	-10.2595
▁focused	-10.2597
▁Terminal	-10.2597
▁Facebook	-10.2597
▁Encoding	-10.2604
श	-10.2607
▁Song	-10.261
id	-10.2625
▁कोः	-10.2634
▁Ctrl	-10.2635
▁सु	-10.2638
ate	-10.264
▁बचा	-10.2642
▁Yes	-10.2643
▁दृश्यता	-10.2653
पोर्ट	-10.2654
▁थाई	-10.2659
मा	-10.2661
▁Icons	-10.2661
b	-10.2665
▁snippets	-10.2667
▁script	-10.2673
▁co	-10.2675
कोई	-10.2676
▁Indentation	-10.269
यू	-10.2716
▁Get	-10.2717
▁step	-10.272
▁Label	-10.2721
▁element	-10.2726
गल	-10.273
▁कार्यों	-10.2739
▁named	-10.2742
▁अनुक्रम	-10.2759
▁Style	-10.2763
▁किताब	-10.2763
▁125	-10.2763
▁महत्व	-10.2764
▁short	-10.2764
▁Visual	-10.2764
▁सादा	-10.2764
▁सेकण्ड	-10.2764
PT	-10.2765
▁Service	-10.2765
▁जाएँगी	-10.2765
▁reached	-10.2766
▁एलागरिथम	-10.2766
▁गुणवत्ता	-10.2766
▁Preparing	-10.2767
▁modified	-10.2767
▁भाषाएँ	-10.2768
▁14	-10.2771
लेना	-10.2771
▁संबंधन	-10.2773
▁binding	-10.2783
लब	-10.2786
▁addresses	-10.2795
▁संबंध	-10.2799
▁देखना	-10.2804
▁Join	-10.2805
▁printing	-10.2813
ose	-10.2815
ला	-10.2828
िन	-10.2831
ाई	-10.2841
हायपर	-10.2844
(_	-10.285
BD	-10.2856
योग्य	-10.2868
रे	-10.2887
▁करो	-10.2888
sibility	-10.2888
▁parameter	-10.2899
सेकेंड	-10.29
▁moved	-10.2901
▁Fonts	-10.2901
बग	-10.2903
▁en	-10.2906
▁ग	-10.2915
शन	-10.2928
▁Accept	-10.2931
▁सिग्नल	-10.2936
▁backup	-10.2936
▁collection	-10.294
▁अद्यतनीकृत	-10.2941
▁...	-10.2942
▁Attach	-10.2947
▁lead	-10.2955
DG	-10.2959
▁पढ़ा	-10.2967
▁Snippets	-10.2972
▁handle	-10.2974
▁errors	-10.2974
▁बर्नर	-10.2977
▁range	-10.2978
▁Fra	-10.2991
▁edited	-10.3031
▁Ask	-10.3035
▁Picture	-10.3045
▁month	-10.3066
सेट	-10.3066
▁copying	-10.3069
GPL	-10.3072
खण्ड	-10.3074
▁waste	-10.3086
▁ब्राउज	-10.3104
▁दबाएँ	-10.311
▁discs	-10.3113
▁बदलाव	-10.3113
▁अनुमतियाँ	-10.3114
▁डायरेक्टरी	-10.3114
▁परिवर्धित	-10.3115
▁बनायें	-10.3116
num	-10.3119
▁exited	-10.312
▁accessibility	-10.3123
क्यू	-10.316
▁रही	-10.3169
ीकृत	-10.317
▁असमर्थः	-10.3189
▁Opening	-10.3189
▁colors	-10.3194
ase	-10.3207
ount	-10.321
▁Sing	-10.3211
OS	-10.3214
▁su	-10.3216
रा	-10.3246
MD	-10.3247
▁{1}	-10.3261
▁लंब	-10.3266
{	-10.3267
▁Searching	-10.3268
”.	-10.3268
शो	-10.3273
▁संगठन	-10.3277
▁Track	-10.3278
▁Alpha	-10.3288
▁वितरण	-10.3288
▁CalDAV	-10.3289
▁Stash	-10.329
▁Scanning	-10.3291
▁निकालें	-10.3292
▁growisofs	-10.3292
▁login	-10.3297
▁minimum	-10.3298
▁पत्ते	-10.3305
▁stop	-10.3305
▁Activate	-10.3314
▁restart	-10.3319
▁सम्	-10.3331
▁relati	-10.3348
▁च	-10.3348
▁दोहरा	-10.3351
▁सुनिश्चि	-10.3359
▁पत्त	-10.3367
▁पेटी	-10.3371
P	-10.3382
▁स्था	-10.3386
कृत	-10.3388
port	-10.3389
▁75	-10.3406
सक्रिय	-10.3407
Key	-10.341
▁press	-10.3421
verride	-10.3435
▁columns	-10.3445
▁multipl	-10.345
▁stdout	-10.3454
सक	-10.3464
▁Redo	-10.3468
▁answer	-10.3469
▁बिन्दु	-10.3471
▁embedded	-10.3473
▁applied	-10.3473
▁पॉप	-10.3473
▁सार्वजनिक	-10.3474
▁रि	-10.3478
▁Required	-10.3479
SV	-10.3484
▁fixed	-10.3491
▁applications	-10.3512
▁मे	-10.3516
▁songs	-10.3516
▁dock	-10.3519
▁zooming	-10.3519
▁Area	-10.3521
▁Skip	-10.3525
▁Ignore	-10.3534
▁क्रम	-10.3535
▁checking	-10.3555
▁दर	-10.3569
▁पताः	-10.3577
बदलना	-10.3584
▁मिल	-10.3597
▁30	-10.3605
▁एटी	-10.3612
पीआई	-10.3614
ंस	-10.3615
▁Variable	-10.3618
▁ई	-10.3621
▁News	-10.3629
▁पूर्ववत	-10.3635
▁csv	-10.3649
▁Request	-10.365
▁VoIP	-10.3652
▁कस्टम	-10.3654
▁INBOX	-10.3654
▁depth	-10.3656
▁De	-10.3658
▁mismatch	-10.3658
▁children	-10.3658
▁Australia	-10.3658
▁यांत्रिकी	-10.3658
▁Underline	-10.3658
▁पढ़ें	-10.366
▁GtkSourceView	-10.366
▁chosen	-10.366
▁Method	-10.3665
▁ग्रीक	-10.3666
9	-10.3667
▁आउट	-10.3677
▁फाइलनाम	-10.3679
▁participants	-10.3679
▁us	-10.3689
▁संपन्न	-10.3706
▁zone	-10.371
▁मै	-10.3713
▁पैरामीटर्स	-10.3713
▁mport	-10.3724
▁विषयः	-10.3732
▁Deleted	-10.375
ग	-10.3757
▁डाय	-10.376
ROM	-10.3768
▁render	-10.3778
▁rows	-10.3778
▁preferences	-10.3784
both	-10.3799
▁स्मार	-10.3801
▁कैसे	-10.3803
ank	-10.3804
▁महत्वपूर्ण	-10.381
▁cell	-10.3832
▁Info	-10.3835
hared	-10.3837
▁इनकोड	-10.3838
▁बाइंड	-10.3842
▁STARTTLS	-10.3846
▁sensitive	-10.3847
▁distribution	-10.3849
▁scaling	-10.3858
▁elements	-10.389
▁PGP	-10.3902
▁tak	-10.3903
▁ख	-10.3923
▁thread	-10.3938
md	-10.3952
▁body	-10.3959
▁gtk	-10.3963
▁बन	-10.3969
करें	-10.3972
▁माउस	-10.3976
▁ग्ले	-10.3978
▁छोड	-10.398
▁avatar	-10.3996
▁newsgroup	-10.3999
OFF	-10.3999
▁warning	-10.4001
▁z	-10.4002
jan	-10.4006
▁नियंत्र	-10.4019
▁proceed	-10.4021
▁प्राक्सी	-10.4024
▁सतह	-10.4029
▁made	-10.4033
▁Query	-10.4034
▁मॉडल	-10.4034
▁मनाही	-10.4035
▁Camera	-10.4036
▁filename	-10.4037
▁Welcome	-10.4037
▁वरीयताएं	-10.4038
▁गीतसूची	-10.4039
▁increment	-10.4039
▁mechanism	-10.4039
▁Environment	-10.404
▁Integrate	-10.404
▁प्रतिस्थाप	-10.404
▁SpamAssassin	-10.404
▁पूर्णस्क्रीन	-10.4044
▁png	-10.4044
▁Transform	-10.4047
▁allowed	-10.4055
▁विरोधी	-10.4056
▁Expand	-10.4057
ies	-10.4061
saved	-10.4068
▁पहचानकर्ता	-10.4092
▁detect	-10.4096
34	-10.4096
▁Printing	-10.4129
▁गय	-10.4132
ान	-10.4135
▁groups	-10.4138
BE	-10.4149
▁include	-10.4155
▁दिख	-10.4159
▁comment	-10.42
▁सत	-10.4208
ां	-10.4217
▁ढेर	-10.4225
▁factor	-10.4227
▁Complete	-10.4227
▁third	-10.423
▁असंभव	-10.423
▁समयः	-10.4231
▁Quick	-10.4231
▁एलार्म	-10.4232
▁मसौदा	-10.4232
▁कम्पाइल	-10.4233
▁इंटरनेट	-10.4233
▁Creator	-10.4234
▁चमकीलापन	-10.4234
▁रेखांकित	-10.4234
▁Destination	-10.4235
▁Fingerprint	-10.4235
▁orientation	-10.4236
▁संबंधित	-10.4237
▁Ker	-10.4238
▁opening	-10.4248
▁सकेग	-10.426
▁पैन	-10.4261
out	-10.4264
▁layer	-10.4266
▁hid	-10.4277
suffi	-10.4277
▁मिली	-10.428
▁war	-10.4293
locked	-10.4294
▁record	-10.4302
▁अंजु	-10.4309
▁Fetch	-10.4315
▁जोड़ेंः	-10.4322
▁Post	-10.4332
▁verified	-10.434
rd	-10.4349
▁प्ले	-10.4371
▁Starting	-10.4373
B	-10.4373
▁जुड़ा	-10.4375
▁Snippet	-10.4393
द	-10.4393
BSD	-10.4395
▁license	-10.4398
ांक	-10.4407
▁जिसक	-10.4409
▁वास्तव	-10.4422
▁discard	-10.4425
▁खत्म	-10.4428
▁एंकर	-10.4429
▁लिखे	-10.4429
▁Analy	-10.443
▁burst	-10.443
▁02110	-10.443
▁बायाँ	-10.443
▁Shell	-10.443
▁लॉ	-10.443
▁पूरी	-10.4431
▁कंपाइल	-10.4431
न्च	-10.4431
▁बीजशब्द	-10.4432
▁Catalog	-10.4432
▁व्यापार	-10.4432
▁AtkHyper	-10.4433
▁मिटायें	-10.4433
▁रिक्तिकरण	-10.4434
▁अपारदर्शिता	-10.4435
▁प्रस्तुतीकरण	-10.4436
day	-10.4436
▁Username	-10.4436
▁wide	-10.4442
▁blanking	-10.4454
▁प्रारंभिक	-10.4454
one	-10.4458
SA	-10.446
▁शैलीः	-10.4466
▁retrieved	-10.4476
▁1301	-10.4478
▁subscribe	-10.4496
ust	-10.4497
▁phrase	-10.4498
▁प्रतिबंध	-10.45
▁phone	-10.4522
ro	-10.4523
▁fit	-10.455
▁निस्पंद	-10.4552
▁सुनिश्च	-10.4554
ific	-10.4575
▁vi	-10.4577
▁Al	-10.4586
▁Subscribe	-10.4593
टेक्स	-10.46
▁फ़ाइलः	-10.4603
हन	-10.4607
▁Has	-10.4609
▁seve	-10.4611
स्वाभाविक	-10.4612
▁objects	-10.4617
▁Pac	-10.4619
▁Final	-10.4631
▁पाइप	-10.4631
▁सलाह	-10.4631
▁पारदर्शी	-10.4632
▁आवास	-10.4633
▁चार्ट	-10.4634
▁obtain	-10.4635
▁रोस्टर	-10.4635
▁Online	-10.4635
टाक	-10.4637
▁त्यागें	-10.4637
▁Direction	-10.4638
▁passphrase	-10.4638
▁Scan	-10.4639
friend	-10.4639
▁autocompletion	-10.464
▁Restart	-10.4641
▁separated	-10.4647
▁संभाव	-10.4648
▁Ch	-10.465
graphical	-10.4653
▁commands	-10.4655
▁Cut	-10.4658
▁पत्ताः	-10.4662
▁फिट	-10.4665
▁indicator	-10.4665
▁register	-10.4666
▁पठित	-10.4669
▁छ	-10.4679
▁स्व	-10.4681
ternal	-10.4685
▁श्री	-10.4687
w	-10.4687
configured	-10.4701
▁हटायें	-10.4703
▁Be	-10.4716
▁बदली	-10.4724
nclude	-10.4725
POP	-10.4729
File	-10.4748
NE	-10.4751
ादन	-10.4792
▁once	-10.4796
ु	-10.4797
टर	-10.48
▁effect	-10.4803
▁Sent	-10.4803
-2022-	-10.4808
2022	-10.4808
▁Outlook	-10.4812
▁Pine	-10.4815
ॉकेट	-10.482
ropri	-10.4826
LE	-10.4832
▁Yacc	-10.4839
▁परिचय	-10.4841
▁औज़ार	-10.4841
▁दायाँ	-10.4841
▁संसूचक	-10.4843
▁Layout	-10.4843
▁roster	-10.4843
▁Setup	-10.4843
▁libburn	-10.4844
▁जाएंगे	-10.4844
▁ऑब्जेक्ट	-10.4845
▁TrueType	-10.4845
▁Gurmukhi	-10.4845
▁Interface	-10.4846
▁creation	-10.4846
▁Append	-10.4847
▁Organization	-10.4847
▁database	-10.4847
▁पंजीकृत	-10.485
▁भंडार	-10.4858
▁जी	-10.4859
▁निस्प	-10.4869
▁वीकार्ड	-10.488
▁तरू	-10.489
▁सूचक	-10.4899
▁(2)	-10.4903
▁encodings	-10.4908
▁फ़ाइलनाम	-10.4916
of	-10.4917
▁class	-10.4925
रल	-10.4927
▁protocols	-10.4928
am	-10.4934
ेगा	-10.4941
▁mac	-10.4944
xample	-10.4945
▁स्थितिः	-10.4949
▁Pre	-10.4967
▁mm	-10.497
▁लॉक	-10.4971
▁Script	-10.4972
चर	-10.4973
वास्तव	-10.4991
जो	-10.4995
set	-10.5007
▁लगा	-10.5008
▁buttons	-10.5024
▁बच्च	-10.5033
always	-10.5036
▁तत्	-10.5047
▁GPS	-10.5049
▁एपीफ	-10.5051
▁गणना	-10.5051
▁Code	-10.5053
▁above	-10.5053
▁पैचेस	-10.5054
▁आमंत्र	-10.5054
▁चलाएं	-10.5054
▁GTKmm	-10.5054
▁Margin	-10.5055
▁हेडर	-10.5056
▁Spacing	-10.5056
▁Inline	-10.5057
▁अस्वीकृत	-10.5057
▁कार्यान्व	-10.5058
▁रोमानियाई	-10.5058
▁02110-1301	-10.5058
▁कार्यक्रम	-10.506
▁एनकोडिंग्स	-10.5061
▁रूपांतरित	-10.5062
▁Copies	-10.5065
▁बढ़	-10.5074
▁32	-10.5075
▁imported	-10.5075
▁लंबा	-10.5076
▁printed	-10.5084
▁Downloading	-10.5086
aildir	-10.5094
बत	-10.5103
▁late	-10.5107
▁खोजना	-10.511
ायें	-10.512
जी	-10.5123
▁Register	-10.5136
▁EX	-10.5138
▁मना	-10.5138
nk	-10.514
▁dur	-10.5142
क्रमण	-10.5142
लाइन	-10.5146
उपयोक्ता	-10.5157
▁मिटाएं	-10.5159
▁calling	-10.517
▁Headers	-10.518
लिस्ट	-10.5202
▁something	-10.5207
▁delegate	-10.5225
▁false	-10.5236
nique	-10.5239
▁projects	-10.5239
ecurity	-10.5247
▁personal	-10.5249
maller	-10.5253
oe	-10.5257
▁वी	-10.526
hen	-10.5265
▁जूम	-10.5265
▁PDF	-10.5265
▁ओवर	-10.5265
ts	-10.5266
HTTPS	-10.5267
▁ISDN	-10.5268
▁विविध	-10.527
▁Write	-10.5271
▁South	-10.5271
▁हिस्सा	-10.5272
▁Detach	-10.5273
▁परिव	-10.5273
▁supplied	-10.5274
▁दोषसुधार	-10.5274
▁एक्सप्रेशन	-10.5275
▁Croatian	-10.5277
▁timeline	-10.5277
▁टिप्पणीः	-10.5278
▁मुद्रक	-10.5287
▁धीम	-10.529
ick	-10.5292
▁उपर	-10.5293
यास	-10.5295
▁draw	-10.5295
▁maximum	-10.5295
▁slices	-10.5296
▁th	-10.5303
▁शेल	-10.5305
▁थीम	-10.5305
lu	-10.5311
▁day	-10.5315
▁Estimat	-10.532
▁Ca	-10.5321
▁Variables	-10.5321
ually	-10.533
▁पठनीय	-10.5333
▁scale	-10.5343
्ड	-10.5346
▁लोडिंग	-10.535
▁कॉम	-10.5352
▁दिय	-10.5357
▁एम	-10.5357
anty	-10.5358
क्ष	-10.5372
▁needed	-10.5378
▁फैक्	-10.5381
▁sounds	-10.5382
रेट	-10.5396
▁निर्गमक	-10.5402
▁immed	-10.5413
▁DN	-10.5419
लिया	-10.5443
aster	-10.5444
पन्न	-10.5449
▁9	-10.5449
▁method	-10.5455
▁Conversation	-10.5458
Deprecated	-10.546
▁रंगः	-10.5463
ject	-10.5477
imi	-10.5477
▁retriev	-10.5482
▁विशेष	-10.5484
▁associate	-10.5486
nd	-10.5488
▁विश्लेष	-10.5489
▁भाग	-10.549
▁अन्दर	-10.5492
▁linux	-10.5492
▁ड्रैग	-10.5492
▁Basic	-10.5492
▁webcam	-10.5494
▁Bottom	-10.5494
▁autogen	-10.5495
▁नेटवर्क	-10.5495
▁progress	-10.5496
▁Progress	-10.5496
▁instant	-10.5496
▁(1	-10.5497
▁rewritable	-10.5499
▁delivery	-10.5499
▁जाएं	-10.5505
IN	-10.551
▁Filename	-10.551
पाठ	-10.551
▁Press	-10.5514
▁बड़ी	-10.5515
▁इ	-10.5516
▁Ne	-10.5516
▁प्रतिक्रिया	-10.5516
.,	-10.5518
▁त	-10.5525
▁भंडारण	-10.5528
ासिक	-10.553
ous	-10.5535
ांत	-10.5543
▁filtering	-10.5565
▁पारदर्शिता	-10.5568
डेटा	-10.5571
▁types	-10.5571
▁आलेखी	-10.5574
▁CA	-10.5576
निहित	-10.5588
एं	-10.559
ले	-10.5597
▁उपयोगी	-10.5604
verburn	-10.5611
lock	-10.5626
Enc	-10.564
message	-10.5646
String	-10.5647
▁extra	-10.5667
▁विफलता	-10.5678
Pref	-10.5687
▁Reg	-10.5687
डेवलपर	-10.5691
▁आकारः	-10.5699
▁संशोध	-10.57
▁Uni	-10.5709
▁separate	-10.5713
▁हूँ	-10.5714
▁मेनू	-10.5717
▁Axis	-10.5718
▁joker	-10.5719
▁Repeat	-10.5721
▁DIGEST	-10.5721
▁ऑपरेशन	-10.5721
▁border	-10.5721
▁Week	-10.5721
▁CRAM	-10.5721
▁surface	-10.5722
ियाँ	-10.5722
▁machine	-10.5722
▁Control	-10.5722
▁अवस्थिति	-10.5723
▁Categories	-10.5724
▁transmission	-10.5725
rompt	-10.5725
▁कॉन्फ़िगर	-10.5725
▁Main	-10.5726
▁परिवर्तनीय	-10.5728
▁Cover	-10.573
▁Documentation	-10.5731
▁Contains	-10.5734
▁पूछे	-10.5738
▁Min	-10.5738
▁State	-10.5738
▁Loaded	-10.5739
▁पै	-10.5739
▁restored	-10.5742
igests	-10.5748
▁अभि	-10.5756
▁Protocol	-10.5757
▁टाइल	-10.5772
▁Lock	-10.5778
▁"{1}"	-10.5781
लंब	-10.5781
▁conversations	-10.5789
लिंग	-10.5805
olitaire	-10.5806
GB	-10.581
ole	-10.5813
Send	-10.5817
स्ट	-10.5821
K	-10.5828
▁ज्या	-10.583
▁डेवल	-10.5838
▁Animation	-10.585
आर	-10.5868
लोक	-10.587
OUT	-10.588
09	-10.5882
जें	-10.5884
Forward	-10.5887
dim	-10.5896
GTK	-10.5904
Balsa	-10.5907
▁Duration	-10.5908
▁Remov	-10.591
cross	-10.591
old	-10.5914
mh	-10.5919
gtkhtml	-10.592
ात्मक	-10.5922
ot	-10.5924
फोन	-10.5927
ंबर	-10.5934
▁Spell	-10.5935
Gtk	-10.594
▁शॉर्टकट	-10.594
▁Receive	-10.5943
▁खास	-10.5946
▁hard	-10.5948
▁Popup	-10.5951
▁12	-10.5951
▁Issued	-10.5953
▁दाएँ	-10.5953
▁एंबेडेड	-10.5954
▁Alignment	-10.5956
▁Double	-10.5956
▁unsubscribe	-10.5957
▁डिस्कनेक्टेड	-10.5957
case	-10.5959
▁सेटिंग्स	-10.5961
▁Connected	-10.5962
▁Thread	-10.5963
▁डाउनलोड्स	-10.5966
▁incorrect	-10.5966
▁प्लेयर	-10.5967
भार	-10.5967
AT	-10.5972
▁clip	-10.5972
▁timezone	-10.5973
▁अन्तर	-10.5987
▁Permissions	-10.5997
▁वर्णनः	-10.5999
▁चुक	-10.6016
▁12:	-10.6023
निर्देशिका	-10.6023
डी	-10.603
▁वैकल्पिक	-10.6032
▁pictures	-10.6033
उदा	-10.604
utgoing	-10.605
▁मिट	-10.6063
ँ	-10.6063
▁mark	-10.6068
▁Give	-10.607
▁घंटे	-10.6081
ssigned	-10.6081
जे	-10.6082
ur	-10.6086
अवैध	-10.6087
▁ढूंढेंः	-10.6095
▁drag	-10.612
▁per	-10.6121
ण्ड	-10.6129
▁भूल	-10.6133
गा	-10.6135
▁(0	-10.6152
▁computer	-10.6153
सम्मेलन	-10.616
region	-10.6165
using	-10.6166
22	-10.6168
ूप	-10.6169
▁भ	-10.6186
▁Swap	-10.6187
▁भरण	-10.6187
▁उत्प्रवास	-10.6188
▁हार्ड	-10.6189
▁Usage	-10.6189
▁दिनांक	-10.619
▁Dasher	-10.619
▁ब्रॉउज	-10.619
▁कुकीज़	-10.6191
▁जायेंगे	-10.6192
▁स्टार्ट	-10.6192
▁डैशर	-10.6192
ment	-10.6192
▁Sensitive	-10.6193
▁Receiving	-10.6194
▁निग	-10.6194
▁iCalendar	-10.6194
▁scan	-10.6195
▁terminated	-10.6196
▁chooser	-10.6197
▁सूचनाएँ	-10.6202
▁calendars	-10.6203
▁inserted	-10.622
▁Of	-10.622
▁memos	-10.6227
TLS	-10.6231
▁older	-10.6233
▁जान	-10.6239
▁स्तरः	-10.6249
committed	-10.6251
▁widgets	-10.6252
▁ready	-10.6252
▁बुला	-10.6254
▁तीसर	-10.626
▁wo	-10.6266
यन	-10.6268
▁आयातक	-10.627
प्यूटर	-10.6273
▁अव	-10.6275
▁test	-10.6277
▁allocat	-10.6284
▁how	-10.6297
12	-10.6306
स्प	-10.6306
▁unlock	-10.6309
Type	-10.6323
ेप	-10.6332
▁1.	-10.6334
system	-10.6335
toolbar	-10.6344
▁("	-10.6355
2)	-10.636
▁bound	-10.6372
▁sort	-10.6372
start	-10.6375
▁stock	-10.6388
▁SVCD	-10.639
एसवी	-10.6403
नतम	-10.6403
हटाओ	-10.6404
▁Compile	-10.6409
▁Unit	-10.642
▁सटीक	-10.643
ocation	-10.6431
▁trace	-10.6432
▁wrong	-10.6433
▁दाहिने	-10.6434
▁volume	-10.6434
▁अंजूटा	-10.6434
▁bitrate	-10.6435
location	-10.6435
▁डाटाबेस	-10.6435
▁Shortcut	-10.6436
▁Internet	-10.6436
▁geometry	-10.6436
▁अंतरफलक	-10.6436
▁Arguments	-10.6436
▁हस्ताक्षरकर्ता	-10.6437
▁असुरक्षित	-10.6438
▁कमरा	-10.6439
▁Unsubscribe	-10.6439
▁longer	-10.644
▁RS	-10.644
▁Keywords	-10.6441
▁against	-10.6444
▁स्कैनिंग	-10.6447
▁parts	-10.6449
▁Effects	-10.6453
▁पुष्टि	-10.6463
▁चेतावनीः	-10.649
▁Stor	-10.6494
rry	-10.6495
▁around	-10.6499
▁संतृप्ति	-10.6501
▁Mov	-10.6509
▁प्लेन	-10.651
▁fork	-10.6511
▁attached	-10.6522
media	-10.6524
▁Item	-10.6528
▁logg	-10.6528
कोटा	-10.6532
▁Permission	-10.6534
▁Transfer	-10.6537
▁Character	-10.6537
जा	-10.6557
▁paths	-10.6559
▁cause	-10.6567
अप	-10.6579
▁attachments	-10.6594
▁Working	-10.6604
रानी	-10.6615
ra	-10.6621
▁possible	-10.6633
▁उद्देश्य	-10.6644
▁pipe	-10.6644
2312	-10.6652
all	-10.6652
मित	-10.6653
land	-10.6654
▁Connect	-10.6655
▁अंतरा	-10.6657
रूम	-10.6661
▁j	-10.6661
kit	-10.6662
▁आंकड़	-10.6663
▁hour	-10.6667
LI	-10.6668
▁"{0}".	-10.6671
with	-10.6673
dao	-10.6675
▁"#	-10.6676
▁239	-10.6677
▁Eye	-10.6677
ookies	-10.668
▁तीन	-10.6681
▁अपवाद	-10.6682
▁स्लॉट	-10.6682
▁नज़र	-10.6682
▁Length	-10.6683
▁Manual	-10.6683
▁caption	-10.6684
▁बनाएं	-10.6684
▁English	-10.6684
▁Running	-10.6684
▁Website	-10.6685
▁automatic	-10.6685
▁exceeded	-10.6686
over	-10.6686
▁अनुकूलित	-10.6686
▁anniversary	-10.6687
▁immediately	-10.6687
▁Step	-10.6689
▁parsing	-10.6689
▁पुनर्प्राप्ति	-10.669
ains	-10.6693
▁फ़ोल्डरः	-10.6694
▁Fr	-10.6694
autodetect	-10.6696
▁सीध	-10.6698
▁दीर्घवृत	-10.6705
▁keys	-10.6708
▁Done	-10.6721
▁refresh	-10.6725
▁Define	-10.6729
roken	-10.6741
ut	-10.6743
formatted	-10.6747
▁resources	-10.675
▁Languages	-10.6766
▁fix	-10.6774
▁Marc	-10.6779
▁generat	-10.6784
▁नामकरण	-10.6784
▁अन	-10.6805
▁प्रारूपः	-10.6825
▁स्थगित	-10.6832
दिवस	-10.6834
▁Real	-10.6849
date	-10.6864
▁स्थानः	-10.6869
ंगो	-10.6875
▁Pl	-10.6876
evelopment	-10.6876
▁लोग	-10.6884
▁Tabs	-10.6894
ixmap	-10.6902
canvas	-10.6908
रपट	-10.6909
KR	-10.6912
▁पैड	-10.6919
▁फॉर्	-10.692
▁पैच	-10.6934
▁TCP	-10.6934
▁कौन	-10.6935
▁Push	-10.6937
▁लगता	-10.6937
▁Delay	-10.6937
▁COLOR	-10.6937
▁Trust	-10.6938
JP	-10.6938
▁office	-10.6939
▁domain	-10.6939
▁arrive	-10.6939
▁Russian	-10.694
▁storage	-10.694
▁priority	-10.6941
▁necessary	-10.6942
▁Extension	-10.6942
▁खिसका	-10.6942
▁कार्यान्वयन	-10.6943
▁Atla	-10.6943
▁Both	-10.6943
▁encountered	-10.6944
▁Possible	-10.6945
▁Mar	-10.6946
▁temp	-10.6947
▁remaining	-10.6947
▁shell	-10.6956
▁Widgets	-10.6959
▁Jum	-10.6963
चित	-10.6964
▁Notification	-10.6966
▁बाल	-10.6972
▁Anchor	-10.6981
▁पुन	-10.6993
2.	-10.6995
"?	-10.7
▁अभिलेख	-10.7006
▁विं	-10.7022
ंतरि	-10.7029
▁evolution	-10.7034
कार	-10.7051
▁(.	-10.7055
▁स्प	-10.707
around	-10.7076
▁cancelled	-10.7081
▁NTLM	-10.7082
▁दक्षिण	-10.709
ेंट	-10.7094
स्टो	-10.7116
▁natural	-10.7118
▁Modify	-10.7124
▁identif	-10.7127
▁पूछ	-10.7129
▁connections	-10.7129
▁finished	-10.7135
▁1:	-10.7135
जांच	-10.7138
टी	-10.7157
ango	-10.7164
स्थ	-10.7167
ेस	-10.717
raviratlami	-10.7171
balsa	-10.7172
▁Security	-10.7172
applets	-10.7172
cast	-10.7173
▁आव	-10.7178
▁कनेक्टेड	-10.7182
▁Restore	-10.7184
सोल	-10.7188
▁drop	-10.7192
▁पासवर्डः	-10.7198
▁VIDEO	-10.72
▁ऑफसेट	-10.72
▁cdr	-10.72
सेटअप	-10.7201
▁सुविधा	-10.7201
▁मोबाइल	-10.7201
▁तारीख़	-10.7202
▁Domain	-10.7202
▁Armenian	-10.7203
▁Georgian	-10.7204
▁execution	-10.7204
▁beginning	-10.7204
▁प्रतिबन्ध	-10.7204
▁पंक्तियाँ	-10.7204
▁push	-10.7204
▁correspond	-10.7205
▁executing	-10.7206
▁visited	-10.7208
▁Development	-10.7209
▁ठहरा	-10.721
▁conflicts	-10.7212
▁administrator	-10.7212
▁Fill	-10.7213
▁आइकन	-10.7213
▁गयी	-10.7226
▁executable	-10.7227
▁निरीक्ष	-10.7227
फ	-10.7237
▁activate	-10.7239
▁करके	-10.7243
▁Gett	-10.7246
▁Action	-10.7248
ay	-10.7264
▁BCC	-10.7264
▁युक्त	-10.7271
▁known	-10.7275
▁31	-10.7281
▁Tags	-10.7286
▁so	-10.7293
़ा	-10.7295
ंकर	-10.7302
रूसी	-10.7307
▁angle	-10.7318
रह	-10.7323
▁Webcam	-10.7325
raw	-10.7327
image	-10.7345
▁भरा	-10.7366
possible	-10.7373
nrecognized	-10.7376
▁जहा	-10.7377
ओ	-10.7394
▁मि	-10.7406
▁आर	-10.741
▁DTMF	-10.7427
▁Frame	-10.743
▁Support	-10.7431
▁addition	-10.7432
▁belong	-10.7434
▁हमार	-10.7434
▁meta	-10.7436
▁जन	-10.7436
ंग	-10.7443
▁silence	-10.7443
शीट	-10.7443
▁node	-10.7445
रीक्षण	-10.7447
▁कार्	-10.7454
ंटन	-10.7455
force	-10.7458
▁Confirm	-10.746
प्रेषक	-10.7462
▁निकास	-10.747
▁तकनीक	-10.747
▁प्रतिशत	-10.7472
▁Surface	-10.7472
▁विस्तृत	-10.7472
▁अभिमुखन	-10.7472
▁TX	-10.7473
▁पत्रिका	-10.7473
▁cancel	-10.7473
▁Redirect	-10.7473
▁Modified	-10.7473
▁सॉफ़्टवेयर	-10.7474
▁resolution	-10.7474
▁आर्मेनियाई	-10.7474
▁preferred	-10.7475
▁अपूर्ण	-10.7476
▁Pango	-10.7482
▁अं	-10.7483
▁Objective	-10.7484
▁परत	-10.7486
▁पुनर्	-10.7488
▁simple	-10.7489
▁seem	-10.7496
ie	-10.7496
vince	-10.7499
भिन्न	-10.7499
▁Condition	-10.7507
▁होकर	-10.751
▁स्वागत	-10.753
▁fold	-10.7532
session	-10.7542
CRLF	-10.7546
ce	-10.7562
ू	-10.7585
line	-10.7587
▁खंड	-10.7592
▁खींच	-10.761
▁श	-10.7617
स्	-10.7623
थ	-10.7628
▁एक्	-10.763
▁quota	-10.7647
विश	-10.7651
क्स	-10.7659
▁System	-10.7661
CN	-10.7663
▁entered	-10.767
ेज	-10.7671
▁fields	-10.7673
गर	-10.7682
केस	-10.7691
▁री	-10.7692
▁Gtk	-10.7695
▁return	-10.7699
est	-10.7701
▁connecting	-10.7708
▁recipient	-10.7712
▁trusted	-10.7717
▁Clip	-10.7718
रेगुलर	-10.7719
विश्वास	-10.772
256	-10.772
▁चार	-10.7721
शुद्ध	-10.7722
▁bind	-10.7726
▁atlas	-10.7732
▁मैसेज	-10.7742
▁भूमि	-10.7745
▁alpha	-10.7747
▁Speed	-10.7747
▁margin	-10.7748
▁Celtic	-10.7748
▁उम्मीद	-10.7748
▁बैकएंड	-10.7748
▁initialize	-10.7748
▁वाक्य	-10.7748
▁OpenGL	-10.7748
▁Firefox	-10.7749
▁डिफोल्ट	-10.7749
▁ellipse	-10.7749
▁attempt	-10.775
▁countdown	-10.7751
▁परिवार	-10.7751
▁exception	-10.7751
▁hierarchy	-10.7751
▁Eject	-10.7752
▁मिलाएँ	-10.7754
रेखी	-10.7755
▁trust	-10.7757
▁पाएं	-10.7757
▁लेआउट	-10.776
▁Side	-10.7761
▁Due	-10.7762
▁archive	-10.7763
▁provider	-10.7763
▁Access	-10.7763
▁Specif	-10.7765
▁पिक्सम	-10.7766
ers	-10.7769
disc	-10.7775
were	-10.7775
▁Long	-10.7775
▁पहल	-10.778
nel	-10.7781
▁unl	-10.7784
नया	-10.7786
▁users	-10.7791
▁Patching	-10.78
ैनि	-10.7802
▁Down	-10.7827
▁बॉ	-10.7835
▁count	-10.7842
os	-10.7855
▁बज	-10.7856
▁fast	-10.7858
▁textures	-10.7864
▁External	-10.7876
▁देश	-10.7878
▁संगत	-10.7885
▁DV	-10.7889
▁frames	-10.7897
▁Match	-10.7905
ince	-10.7908
▁बिट	-10.7917
umar	-10.7919
▁असफलता	-10.7924
▁man	-10.7929
▁toolbars	-10.7967
Play	-10.797
▁फिंगरप्रिंट	-10.7974
alformed	-10.7991
ality	-10.8006
▁0,	-10.801
ater	-10.8014
िस	-10.8026
▁GAL	-10.8028
▁RSVP	-10.803
▁JS	-10.803
▁Inspect	-10.8031
▁दुक्की	-10.8033
▁लिफाफा	-10.8033
▁Nordic	-10.8033
▁पदक्रम	-10.8033
▁भविष्य	-10.8033
▁me	-10.8033
▁विभाजन	-10.8034
▁सेल्टिक	-10.8034
▁Forget	-10.8034
▁रेडियो	-10.8035
▁Invite	-10.8035
▁उपफोल्डर	-10.8035
▁chats	-10.8036
▁Expunging	-10.8036
▁reconnect	-10.8037
▁आर्गुमेंट्स	-10.8037
▁Authority	-10.804
▁Plain	-10.8041
▁players	-10.8042
▁लौटा	-10.8047
▁subfolders	-10.8048
▁downloaded	-10.805
▁forwarded	-10.8053
वीडियो	-10.8056
वस्तु	-10.8059
expected	-10.8084
TR	-10.8088
▁प्रस्तुति	-10.809
▁डेक	-10.8092
▁यूआरएल	-10.8095
▁pick	-10.8098
▁होत	-10.8102
्लिक	-10.8103
▁Live	-10.811
▁इमेज	-10.8125
▁Using	-10.8126
▁मापक	-10.813
ad	-10.8134
▁भर	-10.8136
▁सहेजे	-10.8138
▁किनारा	-10.8155
▁Fast	-10.8157
▁Desktop	-10.8162
▁migrate	-10.8162
बो	-10.8166
▁क्ल	-10.8168
▁स्म	-10.8173
टेक्स्ट	-10.8177
▁Report	-10.819
सरल	-10.8193
समय	-10.8218
ीएन	-10.8219
▁20	-10.8224
▁हाँ	-10.8226
ley	-10.8236
▁डॉ	-10.8247
▁Indian	-10.8252
Priority	-10.8261
ms	-10.8263
▁Generate	-10.8289
IG	-10.8291
▁तुल्यकाल	-10.8293
libgnomeprintui	-10.8299
gcj	-10.8299
traditional	-10.8302
संबंधित	-10.8304
बतक	-10.8307
ld	-10.8307
▁टूलबा	-10.8312
▁Require	-10.8317
▁"0"	-10.8321
▁"1"	-10.8321
▁High	-10.8323
▁अधिसूच	-10.8323
▁Loop	-10.8323
▁भरोसा	-10.8325
▁गंभीर	-10.8325
▁UIN	-10.8326
▁Stack	-10.8326
▁अवस्था	-10.8327
▁बाँटें	-10.8327
▁capture	-10.8328
▁वाक्यांश	-10.8329
▁पुनरावर्त	-10.8329
▁साप्ताहिक	-10.8329
▁technology	-10.833
▁Appearance	-10.833
▁Identifier	-10.833
▁migrator	-10.833
▁Messaging	-10.833
▁आपरेशन	-10.8331
▁Operation	-10.8332
▁चुनो	-10.8332
▁Cookie	-10.8332
▁authorization	-10.8333
▁Encrypted	-10.8334
▁Advanced	-10.8335
▁mk	-10.8336
▁Romanian	-10.8336
▁beside	-10.8337
▁sing	-10.8343
▁प्रश	-10.8349
▁सेल	-10.8349
dual	-10.8351
्टवेयर	-10.8379
▁दिवस	-10.8385
▁डील	-10.8398
oller	-10.8406
▁प्रदा	-10.8406
▁मार्कर	-10.8437
▁64	-10.8437
be	-10.844
▁जाए	-10.8445
zh	-10.8448
tter	-10.846
▁multi	-10.8468
▁Input	-10.8493
▁subject	-10.8496
▁अभिव्यक्त	-10.8497
▁moves	-10.8503
▁दबा	-10.8509
Java	-10.8512
wise	-10.8514
▁Sign	-10.8516
▁मा	-10.8533
▁Second	-10.8539
▁13	-10.8544
▁y	-10.8544
▁origin	-10.8548
▁anchor	-10.855
▁Fa	-10.8555
▁सर्वाधिक	-10.8556
▁Sho	-10.8559
ntic	-10.8579
mp	-10.8585
▁vCard	-10.8586
▁credential	-10.8593
ीत	-10.8601
meters	-10.8602
ौत	-10.8605
▁chose	-10.8622
▁Gdb	-10.8623
▁ईकाई	-10.8626
▁शिशु	-10.8626
▁इंजन	-10.8626
▁तय	-10.8627
▁Abort	-10.8628
▁क्वेरी	-10.8629
▁स्तम्भ	-10.8629
▁people	-10.8629
▁engine	-10.8629
▁मददगार	-10.8629
▁लगायें	-10.8629
▁WebKit	-10.863
▁कैटालॉग	-10.863
▁सम्पर्क	-10.863
▁इंटरफेस	-10.863
▁Unnamed	-10.863
▁खींचें	-10.8631
▁encoder	-10.8631
▁Aisleriot	-10.8632
▁memory	-10.8632
▁चलायें	-10.8632
▁refused	-10.8632
▁transparency	-10.8633
▁consistency	-10.8633
▁multiplier	-10.8633
▁hostname	-10.8635
HE	-10.8637
om	-10.8641
▁बढ़ना	-10.8641
▁लोगो	-10.8641
▁Members	-10.8643
▁Login	-10.8643
▁काल्स	-10.8645
▁present	-10.8647
ेस्ट	-10.8648
▁निरस्त	-10.8649
haven	-10.8652
▁निकाल	-10.8652
work	-10.8654
▁Pop	-10.8654
▁helper	-10.8657
▁slideshow	-10.8659
▁crashed	-10.8665
ssistance	-10.8672
▁credentials	-10.8672
\-	-10.8677
▁Low	-10.8678
▁तुल्यकालि	-10.868
▁तुल	-10.869
mm	-10.869
ाइल	-10.8702
▁+/	-10.8704
▁Process	-10.8705
seconds	-10.8714
बैक	-10.8715
▁Bcc	-10.8719
▁Answer	-10.8721
▁Maildir	-10.8721
xtrapolate	-10.873
▁रचना	-10.8737
▁संजीव	-10.8737
जोर	-10.8738
L	-10.8746
▁Bar	-10.8751
4)	-10.8753
▁खींचन	-10.8775
Windows	-10.8779
hallenge	-10.8782
MacRoman	-10.8786
▁GStreamer	-10.879
▁नोर	-10.8811
प्ट	-10.8815
▁Pixmap	-10.8819
ॉ	-10.8819
▁स्रोतः	-10.8826
'?	-10.883
एवी	-10.8832
UI	-10.8838
▁Downloads	-10.8841
▁CO	-10.8843
▁comp	-10.8861
adio	-10.8865
▁स्कोप	-10.8874
▁sign	-10.8879
▁rule	-10.8897
ze	-10.8897
पब	-10.89
Hebrew	-10.8902
▁attribute	-10.8903
▁rectangle	-10.8904
▁refer	-10.8904
▁Appointment	-10.8905
lying	-10.8905
▁kbit	-10.8907
डर	-10.8907
VISCII	-10.8915
18030	-10.8915
TIS	-10.8919
HZ	-10.8921
action	-10.8924
▁सहभाग	-10.8927
Instant	-10.8928
▁ऑफ	-10.8928
SCS	-10.893
ण्डर	-10.8931
▁Resolve	-10.8931
8-	-10.8935
eck	-10.8937
▁अवयव	-10.8937
▁राशि	-10.8937
▁फोलो	-10.8938
-8859-8	-10.8938
▁weak	-10.8938
▁इकाई	-10.8939
▁रूकें	-10.8939
▁Stock	-10.894
▁ट्रैश	-10.894
▁अपठित	-10.894
▁leave	-10.894
▁repeat	-10.8941
▁synchronize	-10.8942
▁CVSROOT	-10.8942
▁रिकॉर्ड	-10.8942
▁संस्थापन	-10.8942
▁Recover	-10.8942
▁Interrupt	-10.8943
▁soon	-10.8943
▁पिक्समैप	-10.8943
▁GType	-10.8943
▁छाँटें	-10.8944
▁होएं	-10.8944
▁विशेषताएँ	-10.8945
▁alphanumeric	-10.8945
▁Miscellaneous	-10.8945
▁cancelation	-10.8946
lib	-10.8946
▁गोपनीयता	-10.8947
▁implementation	-10.8947
path	-10.8947
▁Best	-10.8948
▁fetching	-10.8951
▁साइड	-10.8951
▁series	-10.8953
▁Fold	-10.8957
्म	-10.8959
▁आसान	-10.8959
pacity	-10.8961
▁initializ	-10.8964
▁बुक	-10.8965
Bus	-10.8967
▁config	-10.8968
▁Vi	-10.8969
▁look	-10.897
▁US	-10.8971
▁container	-10.8971
lex	-10.8974
▁कनेक्टर	-10.8975
▁कुल	-10.8977
▁rate	-10.8977
▁section	-10.898
bookmarks	-10.8982
▁उत्प	-10.8982
▁versions	-10.8986
▁renamed	-10.8989
857	-10.8991
,...)	-10.8994
▁importing	-10.9002
ide	-10.9017
▁Hint	-10.9026
ranslation	-10.9032
▁prompt	-10.9048
nnot	-10.9064
atural	-10.9065
terpolate	-10.9065
▁cue	-10.9066
▁special	-10.9069
पी	-10.9097
जार	-10.9104
▁कंपोजर	-10.9109
▁Static	-10.911
▁प्रिंट	-10.911
युक्त	-10.911
uring	-10.9113
ुक	-10.9122
सरण	-10.9142
▁लाय	-10.9165
▁recurr	-10.9168
855	-10.9175
rs	-10.9179
दिखाएँ	-10.9186
▁आयातित	-10.9197
'.	-10.9209
▁Pane	-10.9214
▁alarm	-10.9222
▁model	-10.9224
▁ratio	-10.9224
▁begin	-10.9229
ांट	-10.9231
Gravity	-10.9237
PEG	-10.9237
श्रृंखला	-10.9238
▁डालन	-10.9241
स्ट्रे	-10.9242
मेंट	-10.9246
▁How	-10.9247
etadata	-10.9251
ump	-10.9252
TD	-10.9255
▁घुसा	-10.9259
▁अनदेख	-10.9261
▁आबंटन	-10.9261
▁caret	-10.9262
▁ठहरें	-10.9262
▁माध्यम	-10.9263
▁विभेदन	-10.9263
▁WebDAV	-10.9263
अल	-10.9263
▁दाहिना	-10.9263
▁copied	-10.9263
▁Indent	-10.9263
▁कुकी	-10.9263
▁Trigger	-10.9264
▁मात्रा	-10.9264
▁सापेक्ष	-10.9265
▁प्रोफ़ाइल	-10.9265
▁transport	-10.9265
▁इंडेन्टेशन	-10.9266
▁Disconnected	-10.9269
self	-10.9271
▁छांटा	-10.9273
▁En	-10.9273
▁launchable	-10.9276
▁छिपाएँ	-10.928
▁व्यवसाय	-10.928
▁Unread	-10.9284
▁सूचीबद्ध	-10.9285
Cyrillic	-10.9288
▁हटाया	-10.929
▁विगोप	-10.9292
▁pending	-10.9293
▁प्लगइन्स	-10.9296
gues	-10.9302
▁alarms	-10.9305
िट	-10.931
▁Dock	-10.931
apped	-10.9311
▁ब्लॉक	-10.9311
छ	-10.9313
▁Alarm	-10.9316
▁editing	-10.9319
ways	-10.9324
▁effects	-10.9327
सा	-10.9341
▁शरीर	-10.9343
▁सॉफ	-10.9344
▁निकट	-10.9349
▁नि	-10.9352
▁Ber	-10.9355
टिंग	-10.9364
▁बजाए	-10.9386
▁ended	-10.9388
▁sources	-10.9397
▁receiv	-10.9399
Q	-10.9401
▁certificates	-10.9405
▁starting	-10.9407
ver	-10.9414
▁screens	-10.9426
▁फ़ॉन्टः	-10.9427
Turkish	-10.9435
▁आउटलुक	-10.9436
▁दोहर	-10.9438
▁Shrink	-10.9449
▁transition	-10.9456
▁WID	-10.9481
icons	-10.9487
प्रारूप	-10.9493
▁Draw	-10.9497
RW	-10.9519
▁Month	-10.9523
▁निर	-10.9524
पूर्ण	-10.9525
▁बा	-10.9526
age	-10.9541
▁require	-10.9544
▁OS	-10.9553
▁Recipient	-10.9558
अंदाज	-10.956
▁विशिष्ट	-10.9575
थन	-10.9577
मैप	-10.958
ize	-10.9581
र्कटिक	-10.9589
▁पंजी	-10.9591
▁एपिफ	-10.9592
▁NONE	-10.9592
▁pile	-10.9593
▁Adium	-10.9594
▁स्विच	-10.9594
▁Decline	-10.9594
▁अनुपात	-10.9595
▁मैनेजर	-10.9595
▁DEVICE	-10.9595
▁मेमोरी	-10.9595
▁Never	-10.9596
▁बक्से	-10.9596
रियो	-10.9596
▁स्टाइल	-10.9596
▁we	-10.9596
▁Border	-10.9596
▁मॉड्यूल	-10.9596
▁smileys	-10.9596
▁shortcut	-10.9597
▁अनुच्छेद	-10.9597
▁keyboard	-10.9597
▁offscreen	-10.9598
▁दृष्टिगोचर	-10.9598
▁डिरेक्ट्री	-10.9598
▁Anniversary	-10.9599
▁statements	-10.9599
▁scheme	-10.96
▁otherwise	-10.96
▁Layer	-10.96
▁अनुमापन	-10.9603
▁Multipl	-10.9604
टैब	-10.9609
न्न	-10.961
▁Patches	-10.9612
▁Shift	-10.9615
▁burner	-10.9618
▁समयक्षेत्र	-10.962
▁बच्चा	-10.9625
▁recording	-10.9626
▁AUTH	-10.9628
urrently	-10.9629
AIN	-10.9633
fully	-10.9635
ne	-10.9638
-1	-10.9639
▁TTY	-10.9639
▁compose	-10.9649
▁para	-10.9654
दान	-10.9656
अज्ञात	-10.966
▁Execute	-10.9664
प्रां	-10.9671
तः	-10.9675
▁burnt	-10.9676
▁breakpoints	-10.9683
PU	-10.9685
▁syntax	-10.9702
▁bas	-10.9705
▁know	-10.9708
▁सूचि	-10.9715
-86	-10.9727
▁नोड	-10.9735
▁words	-10.9738
▁con	-10.9746
astebin	-10.976
▁impli	-10.976
>:	-10.9762
▁pret	-10.9766
OM	-10.9773
config	-10.9781
30	-10.9804
inimal	-10.9812
▁लेन	-10.9822
पत्र	-10.9831
Icelandic	-10.9831
▁role	-10.9834
▁पाठ्य	-10.9837
▁चयनक	-10.9837
tion	-10.9839
base	-10.9844
translation	-10.9853
▁Reconnect	-10.9856
ix	-10.9866
▁सके	-10.9881
library	-10.9892
AGE	-10.9893
▁Attendee	-10.99
ping	-10.9902
▁Wait	-10.9921
गम	-10.9924
▁DSL	-10.9933
▁चाह	-10.9934
▁NOT	-10.9936
▁Child	-10.9938
▁इंस्ट	-10.9938
▁Total	-10.9939
▁Button	-10.9939
▁अवरो	-10.9939
▁बेनाम	-10.994
▁वातावरण	-10.994
▁लेखपत्र	-10.994
▁individual	-10.9941
▁transform	-10.9941
▁सिकोड़ें	-10.9941
▁Untitled	-10.9942
▁Directories	-10.9942
▁unreachable	-10.9943
▁एक्सेर्साइसर	-10.9943
▁contrast	-10.9943
▁Focus	-10.9944
▁brightness	-10.9944
ैं	-10.9945
▁Pages	-10.9946
Greek	-10.9947
The	-10.995
▁ब्राउज़िंग	-10.9951
▁readable	-10.9959
▁मिलीसेकेंड	-10.9965
▁स्वीकार्य	-10.9967
▁Car	-10.9971
▁Lo	-10.9979
▁विवरणः	-10.9983
▁sub	-10.9989
▁अंतर	-10.9992
ilt	-10.9992
▁Direct	-10.9993
eg	-10.9993
▁systems	-10.9999
usable	-11.0001
hreshold	-11.0007
स्थापित	-11.0007
otation	-11.0013
स्क	-11.0016
summary	-11.0032
NTLM	-11.0034
ग्री	-11.0037
IP	-11.0039
video	-11.0039
कैलेंडर	-11.0041
▁modifying	-11.0045
error	-11.0047
etermine	-11.0051
▁onfigure	-11.0063
▁hand	-11.0065
▁Hel	-11.0066
ixed	-11.0066
een	-11.007
चयनक	-11.0078
GE	-11.0088
▁And	-11.0098
▁Follow	-11.0101
API	-11.0111
▁0.	-11.0114
output	-11.0125
▁GLSL	-11.0131
bero	-11.0134
▁4:	-11.0148
")	-11.0155
▁उसक	-11.0159
page	-11.0165
J	-11.0171
ical	-11.0174
ाली	-11.0178
description	-11.018
EX	-11.02
▁Secur	-11.021
▁फाईल	-11.0213
▁व्यू	-11.0219
▁Important	-11.0225
sub	-11.0225
ever	-11.0229
लिन	-11.0246
▁Sender	-11.0251
▁Template	-11.0255
▁pixbuf	-11.026
▁5.	-11.0264
▁minute	-11.0269
▁चौबीस	-11.0269
Meeting	-11.0271
RDF	-11.0273
Entry	-11.0273
फास्ट	-11.0273
▁व्या	-11.0274
Minimal	-11.0274
len	-11.0275
MY	-11.0275
ति	-11.0282
▁FAQ	-11.029
▁give	-11.029
echo	-11.0291
▁RX	-11.0291
sendmail	-11.0291
▁जिप	-11.0291
▁JSON	-11.0292
▁चौवा	-11.0292
ोंट	-11.0293
▁Flip	-11.0293
▁दहलीज	-11.0294
▁पंहुच	-11.0294
▁घंटा	-11.0294
तीसवां	-11.0294
▁खीचें	-11.0294
▁क्विक	-11.0295
▁कंपनी	-11.0295
▁units	-11.0295
▁विभाजक	-11.0295
▁Launch	-11.0295
▁Pidgin	-11.0295
▁एमडीआई	-11.0295
▁अनुरोध	-11.0295
▁निर्गत	-11.0296
▁journal	-11.0296
▁Writable	-11.0297
▁packets	-11.0297
▁Klondike	-11.0297
▁Nickname	-11.0298
▁MAIL	-11.0298
▁23	-11.0298
▁resolved	-11.0298
▁Timeout	-11.0299
▁Generator	-11.0299
▁Transparent	-11.0299
▁recursive	-11.0299
▁Transparency	-11.0299
▁रास्त	-11.0299
▁identifier	-11.03
ue	-11.03
▁transmitted	-11.03
▁Opacity	-11.03
▁indicated	-11.0301
▁Slideshow	-11.0301
▁installation	-11.0303
▁established	-11.0303
बाएँ	-11.0304
पाई	-11.0308
▁forever	-11.0308
▁चलें	-11.0311
▁Waiting	-11.0313
▁व्याख्या	-11.0315
▁Burner	-11.0315
▁खुला	-11.0317
Gujarati	-11.0318
..	-11.0318
▁फ़िंगरप्रिंट	-11.0319
▁Backend	-11.032
पास	-11.0327
▁normal	-11.033
ab	-11.033
सारणी	-11.033
त्रुटि	-11.0331
forward	-11.0332
▁JO	-11.0339
DN	-11.0341
▁insertion	-11.0342
Format	-11.0343
▁Py	-11.0344
साथ	-11.0348
rimary	-11.0348
▁दृश्यमान	-11.0352
▁बांटन	-11.0355
▁Actions	-11.0356
up	-11.0357
▁String	-11.0371
▁उत्	-11.0377
▁बढ़त	-11.038
लाग	-11.0404
▁Fields	-11.0405
▁Anta	-11.0406
▁पहुंच	-11.0411
▁reduce	-11.042
▁मिले	-11.044
▁Mo	-11.0442
▁Redeal	-11.0451
ia	-11.0456
ity	-11.0472
जु	-11.0477
▁seen	-11.0494
▁सुन	-11.0495
▁मान्य	-11.0501
▁hosts	-11.0503
जैसे	-11.0512
ments	-11.0516
▁distribut	-11.0527
▁सकतेः	-11.0528
ware	-11.0538
59	-11.0541
▁prep	-11.0546
ub	-11.0557
इ	-11.0559
▁टोकन	-11.0561
▁लाग	-11.0564
ar	-11.0564
▁info	-11.0579
▁Ver	-11.0594
▁Bus	-11.0608
cording	-11.061
▁Decrypt	-11.0625
ixbuf	-11.0639
शि	-11.0653
लें	-11.0659
▁Extra	-11.066
▁ढूँढ़	-11.0661
▁Index	-11.0663
▁PLAIN	-11.0664
▁Buffer	-11.0665
▁Family	-11.0665
▁future	-11.0665
▁Space	-11.0665
▁Backup	-11.0666
▁Privacy	-11.0666
▁एनीमेशन	-11.0666
▁राज्य	-11.0666
▁Comma	-11.0666
▁identity	-11.0667
▁represent	-11.0667
▁Incomplete	-11.0668
▁डिसकनेक्टेड	-11.0668
▁पश्चिमी	-11.0668
▁Distribution	-11.0668
▁cancellation	-11.0669
▁पढ	-11.0672
▁review	-11.0673
▁620	-11.0679
▁Recording	-11.0683
▁रात	-11.0685
▁letters	-11.0691
▁person	-11.0694
▁Participant	-11.0694
▁मई	-11.0695
▁Encrypt	-11.0698
▁redirect	-11.0704
र्जियाई	-11.0711
▁Sh	-11.0714
un	-11.0727
अग्रसारित	-11.073
solut	-11.0752
als	-11.0757
▁लगाएँ	-11.0759
box	-11.0759
->	-11.0762
▁expunge	-11.0766
level	-11.077
amp	-11.0771
लग	-11.0778
वाले	-11.0779
ीटिंग	-11.0784
फ़ाइल	-11.0786
references	-11.0793
▁टेक्स्ट	-11.0801
▁home	-11.0808
▁24	-11.0812
▁जाते	-11.0818
▁Flag	-11.0818
ouble	-11.0822
gment	-11.0833
▁just	-11.0836
कूटशब्द	-11.0838
▁Bis	-11.084
▁OK	-11.0845
[	-11.0861
ful	-11.0864
▁बाक्स	-11.0867
▁नहींः	-11.0875
spect	-11.0877
button	-11.0881
वाई	-11.0887
▁documentation	-11.0893
न्स	-11.0897
▁Mi	-11.0903
उक्रेनियाई	-11.0919
▁लक्ष्यः	-11.0922
▁appointments	-11.0924
शी	-11.0926
state	-11.0927
▁Cc	-11.093
▁gre	-11.0943
▁doc	-11.0963
▁जै	-11.0965
▁Added	-11.0966
tools	-11.099
▁Tree	-11.0993
▁participant	-11.1012
▁भार	-11.1025
क्टरी	-11.1028
टीपी	-11.1028
lename	-11.1028
LO	-11.1029
recommended	-11.1029
▁चेक	-11.1029
HT	-11.1033
धित	-11.1035
▁Record	-11.1036
▁विंडोज	-11.1036
▁Rule	-11.1037
▁animate	-11.1041
▁vari	-11.1042
▁ढाल	-11.1043
▁visit	-11.1044
ew	-11.1044
▁चौडाई	-11.1046
▁शून्य	-11.1047
▁कैनवास	-11.1048
▁Cloudy	-11.1048
▁आवाज़	-11.1049
▁Smooth	-11.1049
▁निषेधित	-11.1049
▁Monitor	-11.1049
▁Journal	-11.1049
▁Company	-11.105
▁कैरेक्टर	-11.105
▁एक्सएमएल	-11.105
▁spacing	-11.105
▁AisleRiot	-11.1051
▁कोष्ठ	-11.1051
▁Devanagari	-11.1051
▁Constraints	-11.1052
▁capabilities	-11.1052
▁थ्रेड	-11.1053
▁पुनर्भंडारण	-11.1053
▁Tunneling	-11.1053
▁Expires	-11.1055
▁Installation	-11.1057
edge	-11.1058
▁Box	-11.1059
▁जबाव	-11.106
▁notice	-11.1063
▁ट्रिगर	-11.1065
▁प्रकार्य	-11.1069
▁watch	-11.1069
▁पारम्परिक	-11.107
▁signing	-11.107
▁reloaded	-11.107
▁analyse	-11.1071
▁तीसरा	-11.1073
▁परीक्षण	-11.1076
▁अंश	-11.108
मेरा	-11.1084
तंत्र	-11.1086
▁raw	-11.1089
▁अध्य	-11.1092
▁pixbufs	-11.1092
▁Case	-11.1095
टने	-11.1099
गोपन	-11.1101
nsupported	-11.1102
▁Locale	-11.1103
▁एक्चें	-11.1103
▁belongs	-11.1106
omogeneous	-11.1112
▁Site	-11.1113
▁पुराना	-11.1115
▁wx	-11.1117
▁पि	-11.1118
0)	-11.1121
▁Delet	-11.1131
▁Me	-11.1134
▁times	-11.1138
▁determin	-11.1145
Split	-11.1146
यह	-11.1154
▁प्रती	-11.1154
▁Se	-11.1157
▁कोडः	-11.1168
▁White	-11.1168
▁40	-11.1173
graph	-11.1192
▁सफल	-11.1199
▁बहुविध	-11.1201
q	-11.1201
▁bad	-11.1203
▁wrap	-11.1211
▁डि	-11.1216
(	-11.1231
▁mpile	-11.1237
▁रै	-11.1237
you	-11.1238
ypertext	-11.1238
None	-11.1238
होल्ड	-11.1249
▁extensions	-11.1257
picture	-11.126
▁बनाय	-11.1269
परिक	-11.1274
▁head	-11.128
ियो	-11.1297
range	-11.1298
Not	-11.1307
mitted	-11.1308
now	-11.1311
rocessor	-11.1315
▁पाएँ	-11.1324
▁resize	-11.1326
323	-11.1327
▁मिस	-11.1331
tw	-11.1332
aterial	-11.1337
▁ध्य	-11.134
itter	-11.1346
▁रिंग	-11.1347
पंचांग	-11.1347
act	-11.1352
▁पृष्ठो	-11.1359
▁xt	-11.1363
▁Develop	-11.1373
reeting	-11.1374
▁चौ	-11.1375
▁RFC	-11.1378
▁कर्न	-11.1379
▁JP	-11.1383
j	-11.139
▁मिटाए	-11.1393
▁hit	-11.1394
▁Mut	-11.1396
▁happen	-11.1401
ारो	-11.1404
▁11	-11.1406
Restore	-11.141
▁variable	-11.1413
6)	-11.1418
▁संकु	-11.1425
▁PNG	-11.1428
rgb	-11.1431
▁KR	-11.1431
▁Updated	-11.1431
▁KB	-11.1432
▁उत्तम	-11.1433
▁TS	-11.1434
Metadata	-11.1438
कैरो	-11.1441
▁पोस्ट	-11.1442
▁Compose	-11.1444
▁ऑप्ट	-11.1445
▁Menu	-11.1445
▁Burst	-11.1446
▁ग्नोम	-11.1446
▁संगीत	-11.1447
▁रेंडर	-11.1447
▁मालिक	-11.1447
▁फॉन्ट	-11.1447
▁स्कीमा	-11.1447
▁डिजायन	-11.1448
▁पैमाना	-11.1448
▁Offset	-11.1448
▁Nearby	-11.1448
▁Chart	-11.1448
▁पाएंगे	-11.1448
▁पठन	-11.1448
▁Caption	-11.1448
▁फ्रीसेल	-11.1448
▁ढूंढ़	-11.1449
▁Missed	-11.1449
▁अग्रसारण	-11.1449
▁अभिलेखागार	-11.145
▁लौटाया	-11.1451
▁Suspend	-11.1452
▁Executable	-11.1452
▁slower	-11.1453
▁सृजित	-11.1454
▁Composer	-11.1454
▁देखिए	-11.1456
▁vertically	-11.1457
▁निष्पादन	-11.1459
▁अनाम	-11.1461
▁प्रोफाइलिंग	-11.1462
▁तरीका	-11.1463
▁Resolved	-11.1463
▁restarted	-11.1465
▁occurs	-11.1472
▁फ़ॉन्ट्स	-11.1472
ांकि	-11.1473
ाएँ	-11.1474
सही	-11.1477
;.	-11.1482
▁decrypt	-11.1487
िला	-11.149
संपर्क	-11.1501
▁Cl	-11.1507
▁asking	-11.1519
▁प्रतिः	-11.1522
ry	-11.1522
▁lists	-11.1523
▁Conversations	-11.1524
ड़ा	-11.1528
▁threads	-11.1535
▁छोडे	-11.1536
▁मुद्	-11.1557
▁Ei	-11.157
▁nickname	-11.157
ubmit	-11.1576
▁Exist	-11.1583
Screen	-11.1584
सवां	-11.1593
▁started	-11.1594
▁दि	-11.1597
bar	-11.1607
ल्गोरिथ	-11.1611
▁डै	-11.1616
▁प्राप्ति	-11.162
Video	-11.1623
रू	-11.163
▁define	-11.1656
▁small	-11.1665
view	-11.1665
▁solitaire	-11.1669
▁Con	-11.167
vp	-11.1675
▁presence	-11.1676
▁र	-11.1679
▁Importing	-11.168
▁टूल	-11.1683
▁ड्राइ	-11.1684
▁वा	-11.1691
IT	-11.1692
▁श्रे	-11.1706
पिक	-11.171
yntax	-11.1712
▁Validat	-11.1731
xpected	-11.1734
▁Lib	-11.1735
यूक्रेन	-11.1743
▁viewer	-11.1748
▁फ़	-11.1757
end	-11.1761
tical	-11.1771
▁symbols	-11.1775
▁reports	-11.1785
▁खुल	-11.1786
चेंज	-11.1787
▁रोक	-11.1791
▁IR	-11.1803
nlarge	-11.1811
▁Simple	-11.1814
स्कोर	-11.182
▁स्मा	-11.1825
़ाका	-11.1827
▁pluginview	-11.183
00	-11.1832
्बा	-11.1832
▁बताए	-11.1843
र्ध्वाधर	-11.1844
ARMSCII	-11.1844
ronize	-11.1844
बीएसडी	-11.1844
▁NTSC	-11.1844
▁YUV	-11.1844
▁आँख	-11.1844
▁एचटी	-11.1844
▁vcf	-11.1845
कॉन्क्वेरर	-11.1845
टीएस	-11.1845
▁chart	-11.1846
▁सर्वो	-11.1846
▁अर्थ	-11.1847
bgr	-11.1848
▁फ़ायर	-11.1848
▁sudo	-11.1848
▁Factor	-11.1849
▁More	-11.1853
जन	-11.1853
▁कचरे	-11.1856
वर्गीकृत	-11.1856
drdao	-11.186
▁sysfs	-11.1862
▁arbfp	-11.1862
▁अवकाश	-11.1862
▁स्पैन	-11.1862
▁आसंधि	-11.1862
▁दायरा	-11.1862
▁गोपनीय	-11.1862
▁Fire	-11.1863
▁मापदंड	-11.1863
▁Galeon	-11.1863
▁Vendor	-11.1863
▁Volume	-11.1863
▁गेलियन	-11.1863
▁मानिटर	-11.1864
▁Holiday	-11.1864
▁गुजराती	-11.1864
▁revoked	-11.1864
▁Memory	-11.1864
▁Property	-11.1865
▁डेस्कटोप	-11.1865
▁गुरूमुखी	-11.1865
▁शुभकामना	-11.1865
▁Autosave	-11.1865
▁Konqueror	-11.1865
▁navigator	-11.1865
▁Optimized	-11.1866
▁एस्लेरियॉट	-11.1866
▁अंतर्वेषित	-11.1866
▁एक्सेसेबेल	-11.1866
▁focusable	-11.1867
▁Incre	-11.1867
▁milliseconds	-11.1867
▁एक्सेसेबल	-11.1867
▁अंतर्क्रियात्मक	-11.1867
▁detection	-11.1868
▁issue	-11.1868
▁dragging	-11.1868
▁समरूप	-11.1868
▁Undefined	-11.1868
▁चयनीय	-11.1869
▁डिब	-11.187
▁marker	-11.1871
▁maximized	-11.1871
▁digits	-11.1872
▁branches	-11.1873
▁accuracy	-11.1878
▁jobs	-11.1881
▁serif	-11.1882
▁cueing	-11.1882
▁merge	-11.1885
▁atlasing	-11.1889
▁PID	-11.189
▁खेलें	-11.1895
▁आफ	-11.1896
pause	-11.1896
Other	-11.1902
▁Annotation	-11.1906
िये	-11.1912
▁span	-11.1914
▁replying	-11.1915
Imp	-11.192
▁खोले	-11.1924
▁निर्देश	-11.1932
▁Cu	-11.1933
▁पढ़े	-11.1935
छुपाएँ	-11.1935
▁{0}.	-11.1939
script	-11.195
▁linked	-11.1961
▁FTP	-11.1964
dm	-11.1973
▁सारांशः	-11.1979
▁Decr	-11.1979
▁पोर्टः	-11.1979
dvanced	-11.1981
te	-11.1982
▁ब्रेक	-11.1983
रिंग	-11.2005
▁ज्य	-11.2008
▁animations	-11.201
▁देखे	-11.201
▁माइक्रो	-11.2017
67	-11.2017
▁reference	-11.2022
कम	-11.2024
our	-11.2037
भा	-11.2044
▁xpand	-11.2056
संदेश	-11.2057
▁पी	-11.2076
नोड	-11.2082
▁0'	-11.209
attendee	-11.2093
▁Memos	-11.2093
▁बदला	-11.2095
▁typ	-11.2102
CV	-11.2104
▁CRLF	-11.2113
▁बर्	-11.2123
ategorized	-11.2125
▁जे	-11.213
मुह	-11.213
24	-11.2133
रखा	-11.2143
सर्वर	-11.2148
own	-11.2154
.)	-11.216
▁ac	-11.2165
▁Calls	-11.2173
▁वैस	-11.2178
▁uses	-11.2179
ाना	-11.22
देश	-11.2204
organizer	-11.2205
ेट	-11.2205
▁remov	-11.2211
प्रारंभ	-11.2218
850	-11.2231
by	-11.2232
▁comm	-11.2239
कित	-11.2241
▁Translat	-11.2243
28	-11.2244
here	-11.2251
▁उलट	-11.2266
M	-11.2267
▁compatible	-11.2269
▁UDP	-11.2279
▁ढांचा	-11.2279
▁रसीद	-11.2279
▁बफ़र	-11.2279
▁black	-11.2279
▁सौंप	-11.2279
▁alert	-11.2279
▁फीचर	-11.2279
▁दबाएं	-11.228
▁Provide	-11.228
▁कीजिए	-11.228
▁Three	-11.2281
▁देंगे	-11.2281
▁url	-11.2281
▁त्वरक	-11.2281
▁Disk	-11.2284
ल्यू	-11.2284
सेरो	-11.2284
▁देरी	-11.2287
लो	-11.2291
पु	-11.2295
▁स्वरूप	-11.2297
▁सावधान	-11.2297
▁अधिरोह	-11.2297
▁अन्वेष	-11.2297
▁विभाजित	-11.2298
▁pattern	-11.2298
▁डेलिवरी	-11.2298
▁फार्मेट	-11.2298
▁percent	-11.2298
▁डेटाबेस	-11.2298
▁परिभाषा	-11.2298
▁finishes	-11.2298
▁फ़ॉर्म	-11.2298
▁हस्तचालित	-11.2299
▁Unmatched	-11.2299
▁Pointer	-11.23
▁both	-11.23
▁Larger	-11.23
▁accelerator	-11.23
rightness	-11.2301
▁rejected	-11.2301
▁NetworkManager	-11.2301
▁अतुल्यकालि	-11.2302
▁स्वतःपूर्ण	-11.2303
▁Four	-11.2303
हटाएं	-11.2303
▁scanning	-11.2304
▁कूट	-11.2304
▁horizontally	-11.2307
▁प्रतिस्थापन	-11.2307
▁पंक्तिबद्ध	-11.2308
▁party	-11.2311
safe	-11.2313
▁छिपा	-11.2313
▁अपरिभाषित	-11.2316
recent	-11.2317
हवा	-11.2317
▁Comp	-11.232
OR	-11.2321
▁सर्वरः	-11.2322
▁invitations	-11.2322
वरीयता	-11.2322
▁Boo	-11.2327
server	-11.2327
ence	-11.2334
current	-11.2346
दिन	-11.2347
35	-11.2349
05	-11.2349
▁फैलाय	-11.2358
▁lower	-11.2359
▁Release	-11.2361
ारी	-11.2367
burn	-11.237
▁छोड़ा	-11.2373
▁methods	-11.2377
Enter	-11.2379
gree	-11.2396
▁Attachments	-11.241
▁इन्	-11.2412
TC	-11.2419
▁CC	-11.2421
▁Test	-11.2433
▁undo	-11.2441
ter	-11.2444
▁bin	-11.2449
सिस्टम	-11.2453
▁somewh	-11.2454
ble	-11.2466
866	-11.2466
ine	-11.2468
Webcam	-11.2472
Desktop	-11.2487
▁Errors	-11.2494
arsi	-11.2494
Fast	-11.2503
▁समुच्चय	-11.2504
▁86	-11.2507
Downloads	-11.251
ontrast	-11.2516
▁स्टे	-11.2519
▁books	-11.2524
▁King	-11.2525
▁verb	-11.2529
▁कल	-11.253
तृ	-11.2535
सर	-11.2545
▁कलाकार	-11.2552
ian	-11.2565
▁lear	-11.2567
कहीं	-11.2573
▁ver	-11.2573
mb	-11.258
▁East	-11.258
▁70	-11.2581
vocation	-11.2581
Date	-11.2586
normal	-11.259
▁पंक्तिया	-11.2591
onfirmation	-11.2593
▁गतिशील	-11.2615
▁map	-11.2621
▁उच्च	-11.2624
▁Marker	-11.2631
itable	-11.2632
▁काला	-11.2637
No	-11.2639
referred	-11.2648
▁अपारदर्शी	-11.2653
▁प्रस्तुत	-11.2665
▁बाह	-11.2669
▁Sa	-11.2689
▁SIG	-11.2691
▁job	-11.2694
▁fil	-11.2696
space	-11.2699
SMS	-11.2704
पे	-11.2704
▁near	-11.2705
▁slice	-11.2709
ring	-11.2713
ost	-11.2714
▁Im	-11.2716
▁Col	-11.2718
ants	-11.272
rror	-11.2723
▁डैश	-11.2724
दन	-11.2726
▁encrypt	-11.2728
aracter	-11.273
Apply	-11.2733
▁Avatar	-11.2734
▁GConf	-11.2734
▁Mobile	-11.2734
▁Persian	-11.2734
▁behalf	-11.2734
▁global	-11.2734
▁jpg	-11.2734
▁उल्लेख	-11.2734
▁यूआरआइ	-11.2734
▁लाइबेरी	-11.2734
▁समीक्षा	-11.2734
▁हिन्दी	-11.2734
▁आरेखण	-11.2734
▁स्मृति	-11.2734
▁फारसी	-11.2734
▁महीने	-11.2734
▁स्टैश	-11.2734
▁एक्सेंज	-11.2734
▁कठिन	-11.2734
▁Scope	-11.2734
▁markup	-11.2734
▁स्वत	-11.2734
▁1996	-11.2734
▁सम्पादन	-11.2734
▁offset	-11.2735
▁Param	-11.2735
▁लोकेल	-11.2735
▁Slicing	-11.2735
▁Hindi	-11.2735
▁लागिन	-11.2735
▁दिखत	-11.2736
▁VIP	-11.2736
▁xover	-11.2736
▁unset	-11.2737
▁इनलाइन	-11.2737
ntl	-11.2738
▁खात	-11.274
कास्ट	-11.2741
▁Smart	-11.2742
▁Sample	-11.2745
ecure	-11.2745
ेबल	-11.2747
▁(#	-11.2748
mart	-11.2749
▁white	-11.275
▁importer	-11.275
01	-11.2751
arball	-11.2751
ri	-11.2752
▁Embedded	-11.2752
▁एचटीएमएल	-11.2752
▁विक्रेता	-11.2752
▁डेवहेल्प	-11.2752
▁बुकमार्क	-11.2752
▁max	-11.2752
िरी	-11.2752
▁कंट्रास्ट	-11.2752
▁आइसलैंडिक	-11.2752
▁capacity	-11.2753
▁क्रोएशियाई	-11.2753
▁ऑफस्क्रीन	-11.2753
▁environment	-11.2753
▁deliver	-11.2754
▁सृजक	-11.2754
▁initially	-11.2754
▁Overwrite	-11.2754
▁Statusbar	-11.2754
DIR	-11.2754
▁unsuccessfully	-11.2755
▁successful	-11.2757
864	-11.2757
▁Customize	-11.2757
▁unrecognized	-11.2758
ियन	-11.2758
▁Branches	-11.2759
▁तत्वों	-11.276
▁override	-11.2762
मृद	-11.2764
▁Linux	-11.2765
▁Now	-11.2771
▁eog	-11.2773
▁restrictions	-11.2773
▁Received	-11.2774
do	-11.2775
im	-11.2775
▁छोटे	-11.2776
षित	-11.2779
xx	-11.2781
ग्राहक	-11.2782
▁Importer	-11.2785
चरण	-11.2786
▁controll	-11.2788
मिनट	-11.2788
▁GC	-11.2788
▁collect	-11.2791
▁ब्रे	-11.2795
tries	-11.2805
art	-11.2807
▁selectable	-11.281
सेंट	-11.281
imestamp	-11.2811
recognized	-11.2819
▁Converting	-11.2823
nimatable	-11.2827
्डिक	-11.2831
डिस्क	-11.2832
यर	-11.2846
▁warnings	-11.2848
▁matching	-11.2848
▁newsgroups	-11.2849
▁Lua	-11.2851
▁डाल	-11.2855
▁gdb	-11.2855
▁UTC	-11.2864
वित	-11.2865
▁59	-11.2868
▁leadin	-11.2868
▁counter	-11.2869
aba	-11.287
▁attendee	-11.2874
प्वाइंट	-11.2881
iso	-11.2884
size	-11.2885
▁People	-11.2885
Accounts	-11.2888
og	-11.2889
▁May	-11.2889
▁sip	-11.289
▁सात	-11.2893
From	-11.2894
▁toggle	-11.2904
▁पूर्वा	-11.2905
IDE	-11.2909
▁कु	-11.2922
▁ra	-11.2938
▁ontinue	-11.2938
▁Pr	-11.2941
▁vcard	-11.2946
Build	-11.2952
iles	-11.2957
▁Sub	-11.2963
▁gen	-11.2977
▁नेटम	-11.298
▁PS	-11.2982
▁Yesterday	-11.2985
URL	-11.2988
▁संख्याः	-11.2988
▁prefer	-11.2989
▁21	-11.2993
▁Projects	-11.3
▁topics	-11.3031
ugzilla	-11.3031
▁अंतः	-11.3045
ave	-11.3058
default	-11.3073
▁Exp	-11.3074
▁dialogs	-11.3076
ash	-11.3093
▁themes	-11.3094
▁देत	-11.3095
भाव	-11.3107
▁Publish	-11.3108
इंडिय	-11.3109
एक	-11.3112
ports	-11.3117
▁खो	-11.3127
▁pr	-11.3129
भ	-11.3133
▁lines	-11.3135
erial	-11.3138
none	-11.3144
played	-11.3146
VI	-11.3153
▁Who	-11.3157
▁हैश	-11.3157
▁Score	-11.3161
▁convert	-11.3161
▁operat	-11.3171
सेरिफ	-11.3176
gain	-11.3181
▁Compress	-11.3184
▁post	-11.3201
utorial	-11.3203
ठा	-11.3204
only	-11.3207
ैतिज	-11.3209
▁प्रतिनिधि	-11.321
▁receipt	-11.321
▁कम्प्यूटर	-11.321
▁चौदह	-11.321
▁डिजिटल	-11.321
▁शुरुआत	-11.321
▁सांख्यिकी	-11.321
▁binary	-11.321
▁कुहरा	-11.321
▁पड़ेगी	-11.321
▁रोमियो	-11.321
▁categories	-11.321
▁Country	-11.321
▁बुरा	-11.321
uffle	-11.321
▁Romeo	-11.321
▁Renaming	-11.321
▁आरोह	-11.321
▁decompress	-11.321
▁होमपेज	-11.321
▁फेंटें	-11.321
▁declined	-11.3211
▁तेरह	-11.3211
त्तम	-11.3211
▁entries	-11.3211
▁Alternati	-11.3211
▁Updating	-11.3211
▁मालः	-11.3211
▁Spider	-11.3211
विटी	-11.3212
▁interactive	-11.3212
▁Two	-11.3212
▁आठ	-11.3212
▁बनाएगा	-11.3213
▁छांटें	-11.3213
▁हुये	-11.3214
▁Homepage	-11.3214
▁hue	-11.3216
▁बाकीः	-11.3217
▁composer	-11.3217
▁Cop	-11.3218
▁मिनट्स	-11.3218
▁Accerciser	-11.3218
iCal	-11.3219
▁Conflicted	-11.3221
mapping	-11.3221
▁Outgoing	-11.3222
▁whil	-11.3225
▁animated	-11.3226
▁Really	-11.3231
PI	-11.3233
ssible	-11.3237
▁Hi	-11.3239
▁पट	-11.3241
▁adv	-11.3244
▁synchroni	-11.3246
स्क्रिप्ट	-11.3251
▁अद्	-11.3253
▁checker	-11.3253
▁checks	-11.3254
▁Transcod	-11.3254
▁थे	-11.3281
▁कालम	-11.3284
वन	-11.3288
▁Ex	-11.3289
▁rope	-11.3296
predefin	-11.3298
यां	-11.3301
▁replaced	-11.3303
▁partic	-11.3308
▁>:	-11.3308
▁force	-11.3313
ATA	-11.3329
▁insecure	-11.3331
▁सूच	-11.3338
▁सीमां	-11.3346
are	-11.3349
▁Events	-11.3352
▁Specifi	-11.3352
“	-11.3353
▁Symbols	-11.3354
्पन्न	-11.3356
▁योजना	-11.3367
▁समूहीकृत	-11.3376
▁Suit	-11.3384
▁Cards	-11.3385
▁"/	-11.3386
ge	-11.3394
त्र	-11.3394
▁Wi	-11.3403
कार्यालय	-11.3407
PA	-11.3409
▁ग्राफ	-11.3421
ise	-11.3424
ather	-11.3426
cal	-11.344
▁रहन	-11.3441
Reply	-11.3442
लस	-11.3444
▁Visib	-11.3451
ax	-11.3453
▁GB	-11.3455
▁interfaces	-11.3456
▁recover	-11.3458
▁Ma	-11.3467
▁Checks	-11.3469
▁upgrad	-11.3469
▁autocomplete	-11.3483
ाइड	-11.3486
▁birthday	-11.3491
्नि	-11.3496
▁बजा	-11.3499
▁views	-11.3502
▁फो	-11.3503
▁chan	-11.3504
र्य	-11.3505
▁हाथ	-11.3509
)%	-11.352
लगाने	-11.3521
नो	-11.3525
▁Fortr	-11.3529
▁खेले	-11.3532
EUC	-11.3533
▁यून	-11.3534
▁जांचे	-11.3534
852	-11.3535
ऑडियो	-11.3539
▁बेक	-11.354
▁Theme	-11.3544
▁अधिकत	-11.3549
▁PAL	-11.3555
eparator	-11.3558
▁स्थानांतर	-11.3572
▁हटाए	-11.3574
▁204	-11.3584
sh	-11.359
▁Calendars	-11.3594
-8859-1	-11.3599
▁घट	-11.36
me	-11.3611
▁प्रस्ताव	-11.3613
▁notif	-11.3614
किंग	-11.3617
ncomment	-11.3623
CHE	-11.3624
तिथि	-11.3629
▁स्पेस	-11.3632
tore	-11.3635
▁रेखा	-11.3644
sure	-11.3645
तारीख़	-11.3651
▁brace	-11.3666
Spec	-11.3668
▁definition	-11.3668
▁Question	-11.3669
आटोडिटेक्ट	-11.367
▁keyword	-11.3671
▁Macro	-11.3672
▁सू	-11.3672
▁Codec	-11.3674
▁invit	-11.3682
▁बॉक्स	-11.3683
▁jabber	-11.3684
▁छाँट	-11.3684
▁Bac	-11.3685
▁related	-11.3687
▁generate	-11.3689
ुका	-11.3689
▁ग्राहक	-11.3696
विशिष्ट	-11.3703
▁assist	-11.3705
tip	-11.3708
▁डेलिगे	-11.3708
▁ऑपरे	-11.3709
▁सिमुले	-11.3709
आरडब	-11.3709
▁Gnome	-11.371
▁पश्च	-11.371
kground	-11.371
devanagari	-11.371
▁Algorithm	-11.371
▁Nautilus	-11.371
▁Netmeeting	-11.371
▁PROPFIND	-11.371
▁dialpad	-11.371
▁optimization	-11.371
▁आउटगोइं	-11.371
▁आबंटित	-11.371
▁एंटीएलियास	-11.371
▁दृष्टांत	-11.371
▁सर्जक	-11.371
▁हिंटिंग	-11.371
Feb	-11.371
ynamic	-11.371
पट्टिका	-11.371
▁पेड़	-11.371
▁नेविगे	-11.371
▁बूलियन	-11.371
हुच	-11.371
▁ट्रस्ट	-11.371
▁delay	-11.371
▁Own	-11.371
▁कोटियाँ	-11.371
▁Perl	-11.371
▁Resolving	-11.371
▁proof	-11.371
▁"2"	-11.371
▁संपुष्टि	-11.371
▁रिकवर	-11.371
▁Readcd	-11.3711
▁Artist	-11.3711
▁अनुकूलन	-11.3711
▁modifications	-11.3711
▁console	-11.3711
BOX	-11.3711
▁पुनर्निर्देशन	-11.3711
▁Database	-11.3711
▁Context	-11.3712
▁1:1	-11.3712
▁कोडेक	-11.3712
▁chain	-11.3712
opaque	-11.3712
▁splitting	-11.3712
Stream	-11.3712
▁constraint	-11.3713
▁Hang	-11.3713
▁padded	-11.3713
भव	-11.3713
▁सचेतक	-11.3713
▁retry	-11.3713
ांशः	-11.3715
▁Off	-11.3715
▁prefix	-11.3716
च्च	-11.3719
▁मध्यम	-11.3719
▁nick	-11.3721
▁Away	-11.3722
▁खरीद	-11.3724
▁चुनाव	-11.3726
▁Model	-11.3727
▁posting	-11.3727
av	-11.3728
▁manage	-11.3728
▁XID	-11.3729
▁authentic	-11.3729
▁Less	-11.373
▁Playlists	-11.3732
▁ट्रांसकोड	-11.3736
▁buddy	-11.3737
जिन	-11.3739
सामान्य	-11.374
▁initialized	-11.374
पियर	-11.3745
uccess	-11.3746
Simple	-11.3747
▁कहाँ	-11.3755
omanian	-11.3762
per	-11.3763
RFC	-11.3772
▁Addresses	-11.3775
▁samp	-11.3775
▁Priority	-11.3777
त्वरण	-11.3781
▁अत	-11.3783
detected	-11.3785
nvelope	-11.3785
ौरी	-11.3787
ops	-11.3789
▁silences	-11.3789
Lang	-11.379
▁plug	-11.3794
▁tests	-11.3798
lassification	-11.38
ised	-11.3801
मे	-11.3803
▁delegates	-11.3805
▁starts	-11.3806
compress	-11.3825
तयशुदा	-11.3826
where	-11.3832
Tree	-11.3844
क्रमणि	-11.3855
mission	-11.3857
he	-11.3867
▁मू	-11.3869
▁मेलर	-11.387
bon	-11.3871
au	-11.3872
▁Let	-11.3872
गाने	-11.3882
▁components	-11.3885
▁16:	-11.3891
CK	-11.3898
▁HE	-11.3899
▁ms	-11.3903
केंद्र	-11.3906
ीः	-11.3923
▁MB	-11.3926
PAL	-11.3927
Search	-11.3927
▁जुड़े	-11.3939
TW	-11.394
radient	-11.3949
ntialias	-11.3949
▁संपर्को	-11.3951
1)	-11.3951
ompatibility	-11.3951
Head	-11.3954
▁SMS	-11.3964
application	-11.3966
HK	-11.3969
▁संख्याए	-11.3971
▁Gujarati	-11.3976
रती	-11.3978
▁fr	-11.3985
ंपर	-11.3993
▁Slice	-11.4002
्रेस	-11.4006
र्डर	-11.4007
eactivate	-11.401
active	-11.4011
ानी	-11.4012
हत	-11.4014
वश्य	-11.4017
▁उच	-11.4022
▁किय	-11.4024
hecksum	-11.4026
▁फोर्	-11.4028
यदि	-11.4029
▁शो	-11.4037
Add	-11.4043
▁प्रा	-11.4052
hi	-11.4059
▁85	-11.4059
▁'/'	-11.4068
▁playing	-11.4071
▁आपक	-11.4075
▁ones	-11.4076
ांच	-11.4085
▁pixel	-11.4091
▁points	-11.4112
IR	-11.4113
▁दर्शात	-11.4128
▁न्यास	-11.4129
▁बात	-11.413
▁rotate	-11.4144
TS	-11.4147
▁विकास	-11.4163
project	-11.4167
र्ट	-11.4174
folder	-11.4175
डो	-11.4179
low	-11.418
कूद	-11.4189
▁प्रचय	-11.4189
▁balance	-11.4195
▁Effect	-11.4196
▁Widget	-11.4197
▁la	-11.4206
heck	-11.4209
hind	-11.421
▁Fix	-11.421
कुल	-11.4212
Db	-11.4215
▁detail	-11.4217
▁निकल	-11.422
ढ़ा	-11.4223
User	-11.4226
▁फोल्ड	-11.423
▁transit	-11.4235
▁Japan	-11.4236
▁पृथक	-11.4236
▁Cairo	-11.4236
▁boolean	-11.4236
▁combination	-11.4236
▁secret	-11.4236
▁आपूर्ति	-11.4236
▁फाउंडेशन	-11.4236
▁हस्ताछर	-11.4236
▁Analyzer	-11.4236
▁कागज	-11.4236
▁Interval	-11.4236
▁प्रतिनिधित्व	-11.4236
▁deactivated	-11.4236
▁जाएंगी	-11.4236
▁योगदान	-11.4236
▁Autocompletion	-11.4236
▁underscore	-11.4236
▁loop	-11.4236
▁Sidebar	-11.4236
▁Spouse	-11.4236
▁designer	-11.4237
▁वारंटी	-11.4237
ING	-11.4237
▁इकाइयों	-11.4237
Optional	-11.4238
▁अनलोड	-11.4238
▁खड़ा	-11.4238
मीटर्स	-11.4238
▁तहत	-11.4238
▁Outbox	-11.4239
▁Reminder	-11.4239
म्	-11.4243
log	-11.4244
▁Broken	-11.4245
▁wire	-11.4246
▁Nick	-11.4248
Kit	-11.4251
▁Map	-11.4254
quot	-11.4255
▁asynchronous	-11.4257
▁stashes	-11.4257
Show	-11.4258
र्द्ध	-11.4259
string	-11.4259
tatic	-11.4266
▁तुर	-11.4268
NT	-11.427
▁सच	-11.4271
Yahoo	-11.4272
der	-11.4277
यें	-11.4279
ंगर	-11.4279
▁Canceled	-11.4282
बोर्ड	-11.4284
हीन	-11.4285
▁बहिर्वे	-11.4291
▁बनाये	-11.4292
Unknown	-11.4306
▁Allocate	-11.4307
▁Pager	-11.4308
▁पेजर	-11.4308
finished	-11.4311
▁एल	-11.4315
वाला	-11.4318
▁separator	-11.432
ear	-11.4322
~"	-11.4323
ance	-11.4324
▁Frequent	-11.4336
ito	-11.434
head	-11.4345
▁बीप	-11.435
▁अनुमाप	-11.4352
▁खोजेंः	-11.4353
▁आंकडे	-11.4362
ableau	-11.4363
▁steps	-11.4363
View	-11.4375
▁clicking	-11.4378
▁incom	-11.4379
ip	-11.4382
▁प्रतीक्षारत	-11.4385
Romanian	-11.4399
▁प्राय	-11.44
▁Fo	-11.4403
ull	-11.4405
▁reporting	-11.4413
▁Late	-11.4415
▁Started	-11.4418
▁Tile	-11.4422
▁फ़ोल्डर्स	-11.4434
▁patien	-11.445
▁closed	-11.445
▁Gi	-11.4461
▁ca	-11.4462
▁खिसकाय	-11.4467
conf	-11.4467
▁संभाल	-11.4472
▁Tra	-11.4473
6	-11.4478
▁pop	-11.4486
▁eject	-11.4508
full	-11.4515
नामः	-11.4523
ba	-11.4533
बेल	-11.4534
▁व्यवहार	-11.4537
और	-11.4548
etting	-11.4551
▁कंटे	-11.4559
▁DA	-11.4567
email	-11.4582
▁dev	-11.4586
header	-11.4592
▁पहुंचा	-11.4599
xt	-11.4634
foo	-11.4644
वा	-11.4644
▁मेरी	-11.4646
?)	-11.4646
light	-11.465
▁Burns	-11.4651
comment	-11.4656
▁switche	-11.4678
ोल	-11.4688
मीटर	-11.4691
▁Accepted	-11.4698
आप	-11.4699
▁उनक	-11.471
▁लोक	-11.4716
▁दस	-11.4718
locate	-11.4721
गत	-11.4733
रो	-11.4743
ंड	-11.4745
▁छांट	-11.4746
▁बच	-11.4746
Game	-11.4747
other	-11.4755
▁19	-11.4759
▁आख	-11.4766
▁publish	-11.4767
▁त्याग	-11.4768
ोक	-11.4769
▁अच्छ	-11.477
अद्यतन	-11.4775
▁आयोजक	-11.4778
▁Replac	-11.4781
nt	-11.4783
scape	-11.4786
▁पुनर्भंडार	-11.479
▁Align	-11.4791
▁PHOTO	-11.4792
पट्टियाँ	-11.4792
▁Dialpad	-11.4792
▁Libraries	-11.4792
▁PATTERN	-11.4792
▁Palette	-11.4792
▁Remaining	-11.4792
▁criterion	-11.4792
▁क्लाएंट	-11.4792
▁द्विपदीय	-11.4792
▁धैर्य	-11.4792
▁फ़्लैश	-11.4792
▁बोगोफिल्टर	-11.4792
▁मैट्रिक्स	-11.4792
▁रजिस्टर	-11.4792
▁संक्षिप्	-11.4792
▁Private	-11.4792
▁understand	-11.4792
▁FreeCell	-11.4792
▁adapt	-11.4792
इंडियाना	-11.4792
▁धुरी	-11.4792
▁Expression	-11.4792
▁उन्मुखीकरण	-11.4792
▁become	-11.4792
▁विचार	-11.4792
▁निरसन	-11.4792
▁declaration	-11.4792
▁untrusted	-11.4792
▁introduc	-11.4792
Blend	-11.4793
▁North	-11.4793
▁matrix	-11.4793
▁एन्कोड	-11.4793
▁विज्ञापन	-11.4793
▁WebAudio	-11.4793
▁मकड़ी	-11.4793
▁साधारण	-11.4793
▁आदि	-11.4794
▁आरक्षित	-11.4794
▁घड़ी	-11.4795
▁हंस	-11.4797
▁रूपरेखा	-11.4797
▁incomplete	-11.48
▁timeout	-11.48
primary	-11.4801
▁Instance	-11.4804
anjuta	-11.4807
▁विश्लेषक	-11.4807
▁मोड़	-11.481
ified	-11.481
▁Notify	-11.481
मि	-11.4812
▁analyze	-11.4812
LF	-11.4813
प्रयुक्त	-11.4814
minutes	-11.4814
▁उन्न	-11.4817
ond	-11.4821
▁Processing	-11.4822
▁ब्राउजर	-11.4825
संपीड़	-11.4827
▁पुनर्तुल्यकाल	-11.4829
▁दोहराने	-11.4836
um	-11.4836
बाउंड	-11.4838
▁Clock	-11.4838
▁कूटशब्दः	-11.4839
▁accepted	-11.4847
▁downloading	-11.4852
▁भरेंः	-11.4853
▁मुद्द	-11.4856
Ge	-11.4856
▁total	-11.4858
▁उपनामः	-11.4861
▁rectangles	-11.4864
▁यू	-11.4869
play	-11.4873
▁Ins	-11.4878
नियंत्र	-11.4878
▁real	-11.4883
cko	-11.4886
▁Nic	-11.4905
eel	-11.4906
OWA	-11.4907
days	-11.4912
▁slow	-11.4917
बल	-11.4918
▁अकेल	-11.492
▁लिएः	-11.4928
▁Nove	-11.4931
▁Implement	-11.4938
▁Ap	-11.494
Project	-11.494
कर्ताः	-11.4948
▁अधिकार	-11.4958
अ	-11.4961
▁Para	-11.497
isk	-11.4976
▁invite	-11.4978
घंटे	-11.4979
▁today	-11.498
ंद	-11.4982
▁परि	-11.4984
▁+,	-11.4992
▁Ac	-11.4998
▁La	-11.4999
istance	-11.5009
मी	-11.5011
obab	-11.5015
Time	-11.5019
GStreamer	-11.5021
पद	-11.5027
टेड	-11.5038
ीडी	-11.505
ावट	-11.5055
dd	-11.506
ीन	-11.5061
AP	-11.5064
rant	-11.5065
कई	-11.5066
20	-11.5068
▁नामस्थान	-11.5069
संगत	-11.5071
utput	-11.5077
Fran	-11.5094
▁Caret	-11.5094
evolution	-11.5094
bo	-11.5096
▁Impo	-11.5108
▁Extern	-11.5111
लिक	-11.5112
▁प्रद	-11.5125
▁fun	-11.5159
▁ze	-11.5164
जह	-11.5164
▁Created	-11.5165
▁important	-11.518
cipher	-11.5183
रंपर	-11.5185
▁Soft	-11.5189
▁बेस	-11.5201
America	-11.5205
try	-11.521
▁"{1}".	-11.5217
▁minim	-11.5217
plugin	-11.5222
▁enti	-11.5223
प्रेषित	-11.5237
▁0.0	-11.5259
▁ट	-11.5271
न्तर	-11.528
mplementation	-11.5287
▁share	-11.5294
▁Squa	-11.5294
hours	-11.5299
sheet	-11.53
lines	-11.5305
ker	-11.5306
Group	-11.531
नियत	-11.5311
Display	-11.5316
▁par	-11.5318
▁रीयल	-11.5334
▁प्रव	-11.5335
▁redeal	-11.5339
बन	-11.534
▁letter	-11.5342
▁मानों	-11.5349
▁Initializ	-11.5361
mbox	-11.5369
▁wor	-11.5371
ming	-11.5371
▁establish	-11.5373
nversioned	-11.5375
▁सेटः	-11.5378
▁संरेख	-11.5379
▁Review	-11.5379
medium	-11.538
▁Bogofilter	-11.538
▁Contributor	-11.538
▁Countdown	-11.538
▁Permanently	-11.538
▁banned	-11.538
▁policy	-11.538
▁इंटरपोलेट	-11.538
▁सक्रीय	-11.538
▁सूइट	-11.538
▁Synchronize	-11.538
▁सड़क	-11.538
▁Organizer	-11.538
▁Children	-11.538
▁PostScript	-11.538
▁exec	-11.538
▁उपसर्ग	-11.538
▁भ्वा	-11.538
अनुलग्नक	-11.538
▁WebGL	-11.538
▁Response	-11.538
▁Prefix	-11.538
▁पुनर्प्रेषित	-11.538
▁माड्यूल	-11.538
▁इंस्पेक्टर	-11.538
▁फूटर	-11.538
▁स्पैमएस	-11.538
▁एमडी	-11.538
▁फैलाएँ	-11.538
▁बाधित	-11.5381
▁Short	-11.5381
spread	-11.5381
▁sidebar	-11.5381
▁Special	-11.5381
▁charset	-11.5382
▁गोपित	-11.5382
▁addressbook	-11.5382
▁Every	-11.5382
▁directly	-11.5382
एसएस	-11.5382
▁Audi	-11.5383
▁Random	-11.5383
▁ढूँढ़ें	-11.5384
▁schema	-11.5384
▁अदृश्य	-11.5385
▁Head	-11.5385
▁कीवर्ड	-11.5388
▁Inspector	-11.5388
▁dictionary	-11.5388
▁divisions	-11.5388
▁ruler	-11.5389
▁Interpolate	-11.539
▁namespace	-11.539
▁पर्ल	-11.5392
▁Autotools	-11.5392
Text	-11.5394
▁रहेगा	-11.5394
-8859-13	-11.5394
-8859-4	-11.5395
▁Attributes	-11.5396
▁Enum	-11.5396
▁questions	-11.5398
ॉक्स	-11.5399
allery	-11.54
पढ	-11.5402
Thi	-11.5408
Editor	-11.541
▁done	-11.541
▁चुनन	-11.5412
▁लपेटन	-11.5415
उपभोक्ता	-11.5419
▁City	-11.5421
बाइस	-11.5423
स्टैं	-11.5425
▁JIS	-11.5428
▁Contain	-11.543
▁Tracking	-11.5432
▁spelling	-11.5435
CE	-11.5436
ero	-11.5437
▁variables	-11.544
▁gl	-11.5445
▁dropp	-11.5457
▁forwarding	-11.5459
▁recogni	-11.546
▁Resiz	-11.5463
▁suffi	-11.5472
▁Bear	-11.5472
हा	-11.5479
▁Units	-11.5481
▁विल	-11.5489
▁Filtering	-11.5495
▁खुले	-11.5496
सूच	-11.5497
▁कैर	-11.5498
PF	-11.5501
कॉपी	-11.5505
▁फाइल्स	-11.5507
▁सकेंग	-11.5517
▁paint	-11.5519
ायब	-11.5527
▁डायल	-11.5527
ंप	-11.5527
▁Icelandic	-11.553
▁Indiana	-11.5534
सपोर्ट	-11.5536
25	-11.5542
▁prob	-11.5543
title	-11.5544
▁Where	-11.5548
इल	-11.5553
vertical	-11.5554
PS	-11.5554
rr	-11.5558
▁पाय	-11.5559
▁Pro	-11.556
ctica	-11.5561
▁वापसी	-11.5563
ाकार	-11.5563
नक़ल	-11.5566
▁labels	-11.5566
ाइन	-11.5578
▁occurrences	-11.5603
▁levels	-11.5606
रहा	-11.561
Help	-11.5611
▁ear	-11.5615
कॉन्फ़िग	-11.5618
pe	-11.5622
ertain	-11.5623
गो	-11.5624
लटें	-11.5636
ॉटि	-11.5641
टिव	-11.5651
आटोमे	-11.5657
▁flat	-11.567
▁upgrade	-11.5672
अन्य	-11.5687
▁सस्	-11.569
खता	-11.5696
ीला	-11.5699
दर्भ	-11.5701
ncorrect	-11.5703
po	-11.571
कार्ड	-11.5712
0:	-11.5726
IC	-11.573
मेक	-11.5739
urit	-11.574
▁ld	-11.5743
▁actual	-11.576
गित	-11.5763
▁कैलेंडर	-11.5775
्रैग	-11.5775
▁जाय	-11.5776
pping	-11.5793
live	-11.5797
riginal	-11.5802
rsh	-11.5802
प्रिय	-11.581
डा	-11.5813
ीं	-11.5825
way	-11.5826
▁Texture	-11.5826
▁Over	-11.5837
▁कौ	-11.5841
▁वितर	-11.5842
forge	-11.5863
ाइज	-11.5863
Path	-11.588
▁Paths	-11.5889
▁car	-11.5896
▁पाइथन	-11.5902
▁bu	-11.5904
▁Che	-11.5904
files	-11.5905
▁Wrap	-11.5907
BU	-11.5908
atal	-11.5917
म्प	-11.5921
▁क्यू	-11.593
visible	-11.5942
▁choos	-11.5949
tain	-11.5951
▁प्रेष	-11.5955
gg	-11.5955
JIS	-11.5959
512	-11.5969
▁टेलिफोन	-11.5974
▁आँकड़	-11.5984
▁alter	-11.5985
▁स्वाभावि	-11.5988
▁fetch	-11.5989
assword	-11.5994
gnore	-11.5995
king	-11.5996
rl	-11.5997
ccerciser	-11.5998
▁Large	-11.6
rb	-11.6001
▁रिपो	-11.6002
▁anonymous	-11.6003
▁हाइपर	-11.6005
शब्दकोश	-11.6005
▁PWLIB	-11.6005
▁TRUE	-11.6005
▁fingerprint	-11.6005
▁mandatory	-11.6005
▁असफ़ल	-11.6005
▁डिक्लेरेशन	-11.6005
▁डिपेंडेंसीज़	-11.6005
▁डॉयलपैड	-11.6005
▁विडजेट	-11.6005
▁कालटिप्स	-11.6005
▁टेम्पलेट	-11.6005
▁Alphabet	-11.6005
▁रेग्य	-11.6005
▁adjust	-11.6005
▁facebook	-11.6005
▁वर्णमाला	-11.6005
▁Offscreen	-11.6005
▁flash	-11.6005
▁neighbor	-11.6005
▁Autogen	-11.6005
▁internet	-11.6005
-8859-7	-11.6005
-8859-9	-11.6005
▁autosave	-11.6005
▁somebody	-11.6005
थंडर	-11.6005
-874	-11.6005
▁होस्टनेम	-11.6005
-1257	-11.6005
▁परिसर	-11.6005
▁appearance	-11.6005
▁subdir	-11.6006
▁Autocomplete	-11.6006
▁Hidden	-11.6006
▁country	-11.6006
▁outlines	-11.6006
▁LAN	-11.6006
▁ClutterGravity	-11.6006
-8859-5	-11.6006
▁ठहराएँ	-11.6006
▁विभाग	-11.6006
-1255	-11.6006
▁बढ़ाएँ	-11.6006
-111	-11.6006
▁Addressbook	-11.6006
▁Registry	-11.6006
PPM	-11.6007
बाल	-11.6008
▁Distance	-11.6008
बर्	-11.6008
-8859-15	-11.6008
▁Hostname	-11.6008
▁प्रपत्र	-11.6008
▁idle	-11.6008
▁बक्सा	-11.6008
▁Rebase	-11.6008
▁Timeline	-11.6009
-1253	-11.6009
▁Profiling	-11.601
▁dependencies	-11.6011
-1251	-11.6011
-8859-3	-11.6011
▁enlarge	-11.6011
भौ	-11.6011
▁Startup	-11.6013
▁yourself	-11.6014
-1256	-11.6014
▁बढ़ाने	-11.6014
▁Face	-11.6015
-1250	-11.6016
-1254	-11.6016
bb	-11.6017
▁2006,	-11.6017
▁Thunder	-11.6017
▁owner	-11.6019
-8859-2	-11.6023
viet	-11.6024
पेंड	-11.6024
8859-6	-11.6025
-1258	-11.6025
-8859-11	-11.6026
ct	-11.6026
▁Telephon	-11.6027
ील्ड	-11.6027
▁Typ	-11.6028
▁Purge	-11.6029
▁Minutes	-11.6029
▁हस्तांतर	-11.6034
-8859-16	-11.6035
-8859-10	-11.6043
-8859-14	-11.6043
▁Conflicts	-11.6043
▁जानकार	-11.6044
▁recognized	-11.6045
▁874	-11.6046
▁बाल्स	-11.6048
go	-11.6049
▁होस्टनाम	-11.605
अनुसार	-11.6052
जिटरी	-11.6053
▁1257	-11.6054
▁Questions	-11.6056
▁actionable	-11.6057
▁inch	-11.606
▁1255	-11.6064
▁लैंड	-11.607
▁वैधता	-11.6072
▁प्राथमिकताः	-11.6075
generate	-11.6079
चयनित	-11.6081
▁Flags	-11.6081
doc	-11.6082
क्षेत्र	-11.6084
▁generated	-11.6085
▁attributes	-11.6087
ma	-11.6088
hint	-11.609
▁direction	-11.609
avo	-11.6091
▁1253	-11.6092
क्लू	-11.6092
▁विकासकर्ता	-11.6093
▁Pixel	-11.6096
खोज	-11.6099
▁लायब्रेरी	-11.6101
▁1251	-11.6105
▁direct	-11.6106
बंद	-11.611
▁At	-11.6113
dev	-11.6114
▁recognize	-11.6123
bus	-11.6124
utotools	-11.6124
▁कन्	-11.6125
▁im	-11.6126
▁घ	-11.6131
All	-11.6136
ादशाह	-11.6139
▁avatars	-11.614
epth	-11.6141
▁Generat	-11.6142
▁processed	-11.6147
▁locations	-11.6149
▁1256	-11.615
▁111	-11.6151
▁1250	-11.6154
▁1254	-11.6155
▁applet	-11.616
Remove	-11.6161
command	-11.6161
▁draft	-11.6166
reset	-11.6167
▁लपेटें	-11.6168
options	-11.6169
▁अनुशंसित	-11.6169
▁warn	-11.6177
▁आत	-11.618
▁oolbar	-11.6186
cte	-11.6192
Devhelp	-11.6195
rong	-11.6198
native	-11.6202
▁ध्वज	-11.6205
eally	-11.6207
defined	-11.6208
▁मैन	-11.6209
क्या	-11.6211
can	-11.6217
ans	-11.6218
▁सजीव	-11.6219
type	-11.6225
ivo	-11.6227
ियां	-11.6228
हो	-11.6237
▁अनुम	-11.6237
▁1258	-11.6248
फि	-11.6251
▁Warnings	-11.6254
▁utilit	-11.6254
माना	-11.626
▁MacC	-11.6261
▁प्रत्य	-11.6262
▁Packages	-11.6265
so	-11.6267
ंकेत	-11.6274
eason	-11.6274
▁बिल्	-11.6276
▁ics	-11.6286
ंदन	-11.6291
▁Man	-11.6295
Mozilla	-11.6306
ends	-11.6309
▁अंक	-11.6315
▁Filters	-11.6315
ten	-11.6316
▁पार्ट	-11.6319
▁फाइ	-11.6337
▁विराम	-11.6339
sk	-11.634
ju	-11.6343
▁Fi	-11.6348
upported	-11.6354
Arabic	-11.6361
लॉक	-11.6369
▁अत्य	-11.6373
▁fault	-11.6376
▁dot	-11.6381
▁उद्धर	-11.6387
miley	-11.6387
▁Com	-11.639
▁सहेजत	-11.6392
▁प्रलेख	-11.64
▁dir	-11.6401
▁प्रे	-11.6413
▁Remotes	-11.642
▁विलोप	-11.6435
हाई	-11.6441
To	-11.6442
ैर	-11.6443
सुरक्षित	-11.6446
▁पत	-11.6448
▁फुलस्क	-11.6449
स्रोत	-11.6451
▁showing	-11.6463
like	-11.6469
loss	-11.6469
▁एसलि	-11.647
▁छविय	-11.6477
▁बल्	-11.6479
▁INFO	-11.6493
▁tone	-11.6496
▁Toolbars	-11.65
▁apps	-11.65
hing	-11.6502
तक	-11.6504
▁प्रोग्रामः	-11.6513
saturation	-11.6516
▁trans	-11.6517
47	-11.6518
▁Su	-11.652
पथ	-11.652
▁सेंटर	-11.6537
▁ग्रूपव	-11.6542
▁optional	-11.6562
▁ग्रै	-11.6563
▁ASCII	-11.6566
gua	-11.6567
▁अध	-11.657
रंजन	-11.6573
from	-11.6575
▁हैंग	-11.6577
▁क्षेत्रः	-11.6588
▁saturation	-11.66
▁digital	-11.66
फो	-11.6614
ocal	-11.6615
▁56	-11.6616
chooser	-11.6619
deals	-11.6621
▁occur	-11.6622
▁Conflict	-11.6623
▁फाउ	-11.6625
▁पड़	-11.6628
▁website	-11.663
▁Draft	-11.6631
िटी	-11.6635
▁फ्ल	-11.664
क्त	-11.6641
▁Goo	-11.6644
▁सिंक	-11.6645
▁इतन	-11.6647
▁term	-11.6653
▁remain	-11.6657
▁Tak	-11.6658
▁Expir	-11.6658
मोड	-11.6661
गुआ	-11.6661
Fa	-11.6662
ोग्रा	-11.6666
▁वरीय	-11.6667
invalid	-11.6669
संख्या	-11.667
▁ऑडिय	-11.667
▁Break	-11.6671
▁सिंक्रनाइज़	-11.6671
▁टेलेक्स	-11.6671
PACKAGE	-11.6671
▁Medium	-11.6671
▁Tomorrow	-11.6671
▁mobile	-11.6671
▁कॉपीराइट	-11.6671
▁गुणधर्म	-11.6671
▁टीसीपी	-11.6671
▁थंबनेल	-11.6671
▁धन्यवाद	-11.6671
▁मोनोस्पेस	-11.6671
▁लघु	-11.6671
▁सन्दूक	-11.6671
▁सफेद	-11.6671
▁NULL	-11.6672
▁Recurrence	-11.6672
▁Temporarily	-11.6672
▁public	-11.6672
▁पुनर्निदेश	-11.6672
▁Inheritance	-11.6672
▁improv	-11.6672
▁netbooks	-11.6672
▁सुस्वागतम	-11.6672
▁प्रर्दश	-11.6672
▁Percentage	-11.6672
▁Valgrind	-11.6672
▁temporarily	-11.6672
▁मेक्रो	-11.6672
▁पीडीएफ	-11.6672
llegal	-11.6672
▁"{2}"	-11.6672
▁मार्कअप	-11.6672
▁variant	-11.6672
LIST	-11.6672
▁एपीफैनी	-11.6672
▁बल्सा	-11.6672
▁प्रतिध्वनि	-11.6672
▁स्टार्टअप	-11.6672
paper	-11.6672
▁protected	-11.6672
▁क्रमांक	-11.6673
▁कॉन्फ़िगरेशन	-11.6673
streamer	-11.6673
▁त्रुटियाँ	-11.6673
▁Mouse	-11.6673
▁कुंजीपटल	-11.6674
▁upper	-11.6674
▁Footer	-11.6674
क्रिप्ट	-11.6676
▁transformation	-11.6676
▁टेलि	-11.6676
▁handling	-11.6676
▁normally	-11.6677
▁built	-11.6677
▁Statistics	-11.6677
▁विलंब	-11.6678
▁सोल	-11.6678
▁अठा	-11.6679
ारा	-11.6679
▁Conferencing	-11.668
▁होंगे	-11.6683
▁Cell	-11.6683
▁कुमारी	-11.6684
ुलर	-11.6685
▁annotations	-11.6692
▁बाइट	-11.6694
selected	-11.6695
▁meaning	-11.6696
jabber	-11.6706
▁pre	-11.6707
रफलक	-11.6707
related	-11.6708
▁Balsa	-11.6709
Status	-11.6709
1252)	-11.6715
▁Connecting	-11.672
▁keywords	-11.6726
▁Val	-11.6729
handle	-11.6736
▁Forwarded	-11.6736
▁भू	-11.6739
▁slide	-11.674
हिए	-11.6741
spin	-11.6742
▁respond	-11.6744
ak	-11.6745
▁सुधार	-11.6746
▁Refreshing	-11.6749
▁outside	-11.6749
▁Ab	-11.675
निर्धार	-11.6751
▁Recipients	-11.6754
रेखा	-11.6758
▁loader	-11.6762
▁Appointments	-11.6762
▁ejected	-11.6764
synchronized	-11.6766
▁Frames	-11.6774
ASCII	-11.6778
्वी	-11.6778
▁ma	-11.6782
ooter	-11.6784
▁SVCDs	-11.6785
tab	-11.6786
▁पांचवा	-11.6787
▁computers	-11.6788
pixel	-11.6791
▁जुड़ेग	-11.6793
ोनो	-11.6801
▁सह	-11.6801
साफ्ट	-11.6808
▁scrolling	-11.6812
▁छोड़े	-11.6819
▁filenames	-11.682
निष्क्रिय	-11.6821
▁Scal	-11.6827
ategory	-11.6828
गे	-11.6828
कटा	-11.6832
tual	-11.6832
रोम	-11.6839
▁इसी	-11.6841
म्ब	-11.6844
▁भाव	-11.6847
▁(0)	-11.6851
थी	-11.6853
period	-11.6854
ollapse	-11.6855
▁फिल	-11.6856
▁पुरा	-11.6861
टैग	-11.6861
▁Element	-11.6863
▁संशोधनीय	-11.6867
वि	-11.6869
ude	-11.6884
बाव	-11.6884
हमेशा	-11.6886
▁18	-11.6887
▁emacs	-11.6893
▁Devices	-11.6895
OV	-11.6899
आ	-11.6903
▁Days	-11.6904
ja	-11.6919
ok	-11.6922
▁ref	-11.6923
Input	-11.6925
प्रकार	-11.693
धार	-11.6932
ces	-11.6939
▁ge	-11.6939
▁Alt	-11.6943
विस्थापन	-11.6953
TO	-11.6953
lt	-11.6956
▁तल	-11.6961
format	-11.6961
▁ग्ल	-11.6961
▁marke	-11.6963
बा	-11.6988
▁घटा	-11.6993
have	-11.6998
▁Certificates	-11.6998
▁सेः	-11.7
▁processing	-11.7001
▁Te	-11.7005
cc	-11.7012
▁ldap	-11.7013
▁तयशुदाः	-11.7014
ying	-11.7018
ेजी	-11.7023
▁समापन	-11.7024
titu	-11.7026
उ	-11.7027
▁zones	-11.7028
row	-11.703
▁पायें	-11.7034
▁भेजेंः	-11.704
रियल	-11.7056
▁Graph	-11.7063
▁gu	-11.7064
नामकरण	-11.7087
▁mean	-11.71
Card	-11.7104
बी	-11.7106
▁CSS	-11.7107
▁rules	-11.7108
Editable	-11.7108
बर्न	-11.711
पीएस	-11.7113
▁छुपायें	-11.7114
क्षण	-11.7115
editor	-11.7119
▁Or	-11.7129
▁भेजे	-11.7136
▁say	-11.714
▁Look	-11.7159
ator	-11.7161
दे	-11.7164
वान	-11.717
conferenc	-11.7179
हटाएँ	-11.7185
▁फील्ड	-11.7193
ny	-11.7202
वर	-11.7208
▁00	-11.7213
िफ्ट	-11.7223
िड	-11.7223
▁Colors	-11.7229
▁spam	-11.7231
{0}	-11.724
-85	-11.7247
▁Di	-11.7253
sys	-11.7256
▁फैला	-11.7258
घट	-11.7262
डियन	-11.7267
ample	-11.7268
▁बायी	-11.727
सुरक्षा	-11.727
ci	-11.7277
ुड	-11.7277
▁टी	-11.7282
मंजि	-11.7283
eep	-11.7287
rev	-11.7288
▁अनिय	-11.7298
▁सारा	-11.7301
Read	-11.7302
छवि	-11.7302
▁vious	-11.7302
न्ट	-11.7302
मो	-11.7307
▁प्राथमिक	-11.7307
Free	-11.7319
▁Reference	-11.7342
ब्ब	-11.7345
जोड़	-11.735
Edit	-11.7351
uk	-11.7355
▁IN	-11.7358
▁इक्क	-11.7366
▁hav	-11.7371
▁byte	-11.7372
▁implement	-11.7378
▁प्रकट	-11.7381
▁compute	-11.7381
मात्र	-11.7382
SSL	-11.7382
Pine	-11.7382
89	-11.7383
ile	-11.7383
▁Produc	-11.7384
ृंखला	-11.7384
स्पेक्ट	-11.7385
anguage	-11.7385
▁थ	-11.7385
ेदार	-11.7385
जूद	-11.7386
ssembl	-11.7386
▁Applicable	-11.7386
▁Middle	-11.7386
▁Odessa	-11.7386
▁Perspective	-11.7386
▁Scratchbox	-11.7386
▁Substitut	-11.7386
▁Thumbnail	-11.7386
▁claim	-11.7386
▁iPod	-11.7386
▁एप्लेट	-11.7386
▁ओडेसा	-11.7386
▁क्लॉन्डिके	-11.7386
▁ज़ेनेरिक	-11.7386
▁परिप्रेक्ष्य	-11.7386
▁पैटर्न	-11.7386
▁फेसबुक	-11.7386
▁याहू	-11.7386
▁chinese	-11.7386
▁Gdk	-11.7386
▁बांधन	-11.7386
▁seekable	-11.7386
▁Alias	-11.7386
▁scope	-11.7386
▁इकतीसवां	-11.7386
▁Flash	-11.7386
▁Limit	-11.7386
▁staple	-11.7386
▁यूआईडी	-11.7386
jvu	-11.7386
▁ग्नू	-11.7386
▁Libburn	-11.7386
▁acceleration	-11.7386
▁stretch	-11.7386
▁कैरेट	-11.7386
▁Gaps	-11.7386
▁Component	-11.7386
▁Shutter	-11.7386
स्थितियाँ	-11.7387
▁Paper	-11.7387
▁संयोजन	-11.7387
▁remember	-11.7387
▁navigation	-11.7387
▁Misc	-11.7387
▁पोकर	-11.7387
▁Synchronization	-11.7387
▁manipulati	-11.7387
▁Management	-11.7387
▁मित्र	-11.7387
▁Pipe	-11.7388
▁"="	-11.7388
▁शटर	-11.7388
▁True	-11.7388
▁anonymously	-11.7388
▁सुधारें	-11.7388
imilar	-11.7389
▁Retry	-11.7389
चाल	-11.7389
▁Disa	-11.739
रर	-11.739
रेशो	-11.7391
▁त्रुटियां	-11.7391
▁Hard	-11.7391
▁ईस्ट	-11.7392
▁tint	-11.7394
▁Calltip	-11.7395
▁कैप्स	-11.7396
▁Scor	-11.7396
▁wrapping	-11.7397
▁increas	-11.7398
▁Suggestions	-11.7399
▁मेटाडाटा	-11.7402
▁कोडेक्स	-11.7405
▁reverse	-11.7405
▁Publishing	-11.7406
उद्देश्य	-11.7409
26	-11.7411
▁encrypting	-11.7412
▁Dub	-11.7413
▁discarded	-11.7413
▁Hours	-11.7413
▁layered	-11.7413
अन	-11.7416
ीट	-11.7417
▁acceptable	-11.7423
▁mment	-11.7427
▁पदा	-11.7428
wood	-11.7429
▁Drafts	-11.743
▁mailboxes	-11.7432
▁फ्री	-11.7436
चयन	-11.7439
▁स्लाइडर	-11.744
▁Too	-11.7447
▁Codecs	-11.7447
▁threading	-11.7451
▁सुरक्षाः	-11.7457
▁व्यस्तता	-11.7462
abl	-11.7468
▁Goto	-11.7479
▁Sun	-11.7481
खि	-11.7481
▁piles	-11.7482
opscotch	-11.7483
cho	-11.7486
▁चलाय	-11.7487
स्थान	-11.7489
ifying	-11.7492
allback	-11.7501
▁BA	-11.7507
स्पेस	-11.7508
▁Changed	-11.7508
पता	-11.7509
▁organizer	-11.7517
▁मज	-11.7527
▁integrat	-11.7528
जुल	-11.7533
▁switch	-11.7534
▁पैकेजः	-11.754
▁Dep	-11.7545
▁"(	-11.7545
river	-11.7546
टोकन	-11.755
▁विश्वसनीय	-11.7553
ेन्ट	-11.7553
ग्या	-11.7559
eek	-11.7566
▁op	-11.7571
▁ड	-11.7576
िय	-11.7583
ravel	-11.7584
older	-11.7585
Data	-11.7587
map	-11.7595
menu	-11.7597
Audio	-11.7611
टें	-11.7612
verified	-11.7616
▁dial	-11.7617
लोअ	-11.7632
▁unload	-11.7635
▁CN	-11.7636
लि	-11.7636
▁Prefer	-11.7641
▁automake	-11.7663
▁Wins	-11.7663
छुपायें	-11.7666
टीके	-11.7666
ransformation	-11.7681
▁Ten	-11.7696
▁48	-11.7701
▁Selector	-11.7709
्रीन	-11.7711
▁Si	-11.7717
िश	-11.7725
▁Fin	-11.7728
कोड	-11.7748
person	-11.7751
ko	-11.7751
▁बड़े	-11.7759
recover	-11.7766
▁पूछन	-11.7768
समुच्चय	-11.7771
3:	-11.7773
▁जीता	-11.7773
▁विधिः	-11.7779
लेट	-11.7781
नर	-11.7783
र्थ	-11.7785
▁भेजी	-11.7794
imension	-11.7796
▁हम	-11.7797
▁लेक	-11.7804
▁मेजबाननाम	-11.7804
ER	-11.7809
▁दाव	-11.781
▁modules	-11.7823
Quality	-11.7838
पुस्तिका	-11.7841
द्ध	-11.7843
▁win	-11.7848
▁जिन	-11.7853
second	-11.7859
ुरूप	-11.786
▁अस	-11.7863
nty	-11.7866
स्के	-11.787
▁Wa	-11.7877
▁बह	-11.7878
nces	-11.788
आगे	-11.7881
got	-11.7908
लॉन्	-11.7922
▁Wrapp	-11.7934
पिक्स	-11.7936
▁analyzer	-11.7944
▁Na	-11.7947
▁Gu	-11.795
▁जीपी	-11.7951
▁समूहः	-11.7958
reserve	-11.7959
सिंग	-11.7964
▁मानचित्र	-11.7968
कर्स	-11.7978
▁डेव	-11.7988
पाथ	-11.7993
List	-11.7996
epositories	-11.8015
,.	-11.8017
▁Counter	-11.802
her	-11.8029
बस	-11.8034
▁Exi	-11.8047
▁Delegat	-11.8048
uthority	-11.8056
qui	-11.806
example	-11.8068
truct	-11.8071
बेस	-11.8071
▁जरुर	-11.8073
thing	-11.808
िति	-11.808
▁clean	-11.8083
ctivate	-11.8083
lle	-11.809
धारण	-11.809
▁Mini	-11.8095
▁ntacts	-11.8102
tional	-11.8104
▁वृ	-11.8111
▁Subscription	-11.8113
ically	-11.8115
ope	-11.8115
▁invitation	-11.8116
ps	-11.812
पेक्ष	-11.8131
▁ब्राउ	-11.8138
tivate	-11.8138
▁Protect	-11.8144
▁corrupt	-11.8148
ारे	-11.8151
▁Point	-11.8152
▁suggest	-11.8154
▁डिस्कनेक्ट	-11.8155
▁ब्रेकपाइ	-11.8155
वहेल्प	-11.8155
▁behaviour	-11.8155
▁Bonobo	-11.8155
▁Computer	-11.8155
▁WindowsTM	-11.8155
▁concern	-11.8155
▁अंतर्वेशित	-11.8155
▁गेटकीपर	-11.8155
▁Quota	-11.8155
▁caution	-11.8155
▁kicked	-11.8155
▁Saturday	-11.8155
▁xml	-11.8155
▁रविवार	-11.8155
▁शनिवार	-11.8155
▁यात्रा	-11.8155
▁चक्र	-11.8155
▁पड़ेगा	-11.8155
▁Sunday	-11.8155
▁Identity	-11.8155
▁मेमो	-11.8155
▁Alert	-11.8155
▁बनाएगी	-11.8155
▁टीएलएस	-11.8156
▁प्राधिकरण	-11.8156
डब्ल्यू	-11.8156
▁Transport	-11.8156
ब्लैं	-11.8156
▁unusable	-11.8157
▁high	-11.8157
▁Telepathy	-11.8157
▁uninte	-11.8157
▁उच्चतर	-11.8158
▁hardlink	-11.8158
rientation	-11.8158
▁Decoder	-11.8158
▁replies	-11.8159
▁Binding	-11.8159
▁envelope	-11.816
▁compatibility	-11.8161
▁someone	-11.8161
बफ	-11.8161
▁डिकोडर	-11.8161
▁हिस	-11.8162
▁वेस्ट	-11.8162
▁Copie	-11.8163
▁itself	-11.8165
▁Namespace	-11.8167
▁Past	-11.8167
▁Once	-11.8167
▁reside	-11.8168
ehavio	-11.8168
▁Dual	-11.8168
▁renderer	-11.8169
▁good	-11.8169
▁Prefere	-11.8173
▁uris	-11.8173
lo	-11.8174
ूं	-11.8174
▁uids	-11.8175
▁LD	-11.8177
▁associat	-11.8181
▁Loader	-11.8183
चि	-11.8186
▁Bold	-11.8187
वार	-11.8189
▁matches	-11.8189
▁यूआरएलः	-11.8193
talk	-11.8195
ंब	-11.8198
-1252	-11.8201
▁खिसकाने	-11.8202
▁टैब्स	-11.8204
धिकृत	-11.8205
join	-11.8207
▁भिन्नता	-11.8211
▁कंप	-11.8215
ध्वज	-11.8216
ल्ड	-11.8219
▁subscription	-11.822
horizontal	-11.8227
rash	-11.823
▁pluginviews	-11.8232
▁Navigat	-11.8234
▁accessed	-11.8234
▁डिल	-11.8236
यल्म	-11.8237
सभी	-11.8242
▁highlighting	-11.8243
ertex	-11.8248
▁DE	-11.8261
ange	-11.8263
ावर	-11.8268
▁filtered	-11.8273
▁DTMFs	-11.8274
▁आस	-11.8278
rctic	-11.8287
नल	-11.8288
secs	-11.8288
जोड़ें	-11.8292
▁Non	-11.8296
▁Monte	-11.8298
One	-11.8314
िभाषित	-11.8315
▁let	-11.8319
ट्रै	-11.8321
आपके	-11.8327
ecks	-11.8327
▁checked	-11.8329
ायेगा	-11.833
▁कारणः	-11.833
this	-11.8335
▁Span	-11.8339
▁लेगा	-11.8339
▁Design	-11.8339
▁नक	-11.8341
▁Presentation	-11.8349
त्यंत	-11.835
omething	-11.8358
ठ	-11.8361
स्टार्	-11.8364
▁अग्र	-11.8364
ंतु	-11.8368
▁hours	-11.8369
विफलता	-11.8374
र्गत	-11.8375
▁easi	-11.8387
▁कार	-11.8391
ायक	-11.8393
स्थगित	-11.8395
▁एड	-11.8402
▁बढ	-11.8406
evious	-11.8406
▁follows	-11.8411
▁बैक	-11.8411
▁जारीकर्ता	-11.8416
टिक	-11.8424
▁Part	-11.8425
list	-11.8428
▁locale	-11.8428
▁सेरिफ	-11.8428
parts	-11.8431
▁स्टाक	-11.8434
▁अपार	-11.8435
विंडो	-11.844
ple	-11.8448
हैं	-11.8461
▁Rights	-11.8466
काउ	-11.8471
कलाकार	-11.8478
▁उद्ध	-11.8478
▁We	-11.8485
ॉर्म	-11.8485
▁underl	-11.8496
placed	-11.85
unt	-11.851
क्रम	-11.8511
▁amo	-11.8513
ubscribed	-11.8528
Yesterday	-11.8535
टार	-11.8544
▁डिकोड	-11.8547
▁खु	-11.8549
ctivatable	-11.8552
र्द	-11.8557
▁इक	-11.8576
orted	-11.8576
titled	-11.8577
▁HK	-11.8579
्यूटर	-11.8587
ck	-11.8592
▁साथः	-11.8595
CS	-11.8596
▁ab	-11.8599
ating	-11.86
side	-11.8627
▁Tele	-11.8629
▁मास	-11.8634
Mut	-11.8635
▁Formatt	-11.8638
▁कब	-11.8639
▁viewing	-11.864
▁authoris	-11.8642
utomake	-11.8642
▁TW	-11.8645
▁Gr	-11.8652
▁काटे	-11.8653
सिन	-11.8653
सत	-11.8654
apps	-11.8665
▁पे	-11.8679
hot	-11.8684
पदावनत	-11.869
2833"	-11.8694
SECAM	-11.8695
CSS	-11.8704
देन	-11.8705
ग्र	-11.8707
▁expung	-11.872
पत्	-11.8725
▁Ro	-11.8738
▁reminders	-11.8742
▁sizes	-11.8748
▁जेन	-11.8757
गोल	-11.8766
versal	-11.8769
पठनीय	-11.8769
ted	-11.8777
राष्ट्रीय	-11.8779
▁Suite	-11.879
▁enabl	-11.8792
▁ड्र	-11.8796
CRL	-11.8808
विश्वसनीय	-11.8821
रंग	-11.8845
▁Normaliz	-11.8854
od	-11.8862
चा	-11.8863
▁registered	-11.8864
unction	-11.8873
▁Max	-11.8878
सिमुलेशन	-11.8878
Preview	-11.8879
pecific	-11.8902
phone	-11.8908
▁{	-11.8912
shall	-11.8927
ोस	-11.8932
dge	-11.8936
▁Roo	-11.8945
▁Cdr	-11.8947
भु	-11.8948
utt	-11.8951
ggle	-11.8953
▁CoglObject	-11.8955
OU	-11.8955
▁formed	-11.8958
ख	-11.896
▁foo	-11.8966
▁डॉट	-11.8972
alized	-11.8976
साइटें	-11.8976
▁कुमार	-11.8977
▁Continu	-11.8977
मुच	-11.898
▁खाँच	-11.898
▁सचेत	-11.8983
▁Share	-11.8983
प्ति	-11.8984
▁Anonymous	-11.8986
einst	-11.8986
ification	-11.8986
▁rectang	-11.8987
▁propos	-11.8987
ऊ	-11.8987
▁स्पैम	-11.8988
▁एनक्रिप्	-11.8988
▁break	-11.8988
▁डाउन	-11.8988
▁Apparently	-11.8988
▁monitor	-11.8988
ECT	-11.8988
baltic	-11.8988
▁ARBfp	-11.8988
▁Boolean	-11.8988
▁CamelHttpStream	-11.8988
▁Dismiss	-11.8988
▁Juliet	-11.8988
▁Overdue	-11.8988
▁instructions	-11.8988
▁अपरीक्षित	-11.8988
▁उत्तेजित	-11.8988
▁कामकाज	-11.8988
▁क्रेडिट	-11.8988
▁जल्द	-11.8988
▁जुलियट	-11.8988
▁डिवायस	-11.8988
▁प्रतिचित्रित	-11.8988
▁विन्डो	-11.8988
▁शब्दकोष	-11.8988
▁श्वेत	-11.8988
▁सहकर्मी	-11.8988
▁NOOP	-11.8988
▁Reduce	-11.8988
▁gesture	-11.8988
▁wireframes	-11.8988
▁उत्सर्ज	-11.8988
▁ClutterBackend	-11.8988
▁इनलाइल	-11.8988
hebrew	-11.8988
sanity	-11.8988
more	-11.8989
▁submitting	-11.8989
▁इशार	-11.8989
▁chatroom	-11.8989
▁Flagged	-11.8989
ड्यूल	-11.8989
▁together	-11.8989
▁nearby	-11.8989
▁However	-11.899
▁parenthes	-11.899
▁Renderer	-11.899
▁consider	-11.899
▁Lisp	-11.899
▁ढूँढें	-11.899
▁Native	-11.899
kmark	-11.8991
▁चिन्ह	-11.8991
▁बीयर	-11.8991
▁Detected	-11.8991
▁Quoted	-11.8991
छिपाएं	-11.8991
▁unsub	-11.8991
tamil	-11.8991
▁अक्रिय	-11.8991
patial	-11.8991
▁टागल	-11.8992
mergency	-11.8992
▁batching	-11.8992
▁फाईलो	-11.8993
▁कुँजीपट	-11.8993
▁ARB	-11.8993
bgt	-11.8993
▁intercept	-11.8994
▁conflict	-11.8994
arabic	-11.8994
▁Original	-11.8995
▁Resume	-11.8996
▁Cache	-11.8997
प्रमुख	-11.8997
▁सूचीः	-11.8997
ays	-11.8997
▁Lower	-11.8997
डिक	-11.8998
ss	-11.8998
▁West	-11.8998
▁texturing	-11.8998
▁थ्रेडिंग	-11.8999
▁Dev	-11.9
▁मैसेजिंग	-11.9002
▁IDLE	-11.9002
▁relation	-11.9003
▁";"	-11.9004
आरंभ	-11.9004
then	-11.9005
ैनी	-11.9006
Win	-11.9006
▁Finish	-11.9007
▁दोहराना	-11.9008
गुना	-11.9009
▁कैम	-11.9009
▁Templ	-11.9009
▁भंडारन	-11.901
▁Downloader	-11.901
▁डॉटा	-11.901
▁वर्गीकरण	-11.9011
unlink	-11.9011
▁factory	-11.9011
▁Initializing	-11.9013
▁तीर	-11.9013
ाधार	-11.9013
▁Classic	-11.9014
▁Setting	-11.9015
▁Friend	-11.9015
tive	-11.9016
▁encode	-11.9016
त्त	-11.9019
▁capabilit	-11.9019
म्प्ल	-11.9019
central	-11.902
▁सन्	-11.9023
िकल	-11.9023
lose	-11.9026
ccessibility	-11.9027
▁fra	-11.9029
▁CoglObjects	-11.9029
eta	-11.9033
▁शॉर्टकटः	-11.9039
▁dots	-11.9042
▁दिखाए	-11.9051
▁नही	-11.9054
▁expand	-11.9055
▁proceeding	-11.9061
▁वर्षगांठः	-11.9061
▁छोट	-11.9062
▁Eas	-11.9062
▁भरे	-11.9064
Wed	-11.9069
ha	-11.9073
बदलें	-11.9075
Tone	-11.9079
▁जन्मदिनः	-11.9083
▁subtitle	-11.909
▁clicked	-11.9095
अरब	-11.9097
ान्तर	-11.9101
ta	-11.9102
▁specifie	-11.9107
▁फ्रें	-11.9108
ियाद	-11.9116
▁उत्पाद	-11.9118
खरी	-11.9119
Challenge	-11.9122
mage	-11.9123
avorite	-11.9123
▁कॉम्	-11.9128
amelStreamFilter	-11.9131
▁लिस्ट	-11.9136
ons	-11.9138
खर	-11.914
ैक्स	-11.914
ellu	-11.9143
48	-11.9148
▁html	-11.9149
▁इनपुटः	-11.915
Cancel	-11.9163
uts	-11.9163
पंक्ति	-11.9165
ki	-11.9173
संलग्न	-11.9176
क्ति	-11.9178
llipsize	-11.918
ubtitle	-11.9185
stimation	-11.9195
▁miss	-11.92
▁एकत्र	-11.9204
report	-11.9206
ैया	-11.9207
rrow	-11.9208
▁भाषाः	-11.9217
sed	-11.9219
alculat	-11.9226
▁दु	-11.9227
▁problems	-11.923
▁kname	-11.9242
टेशन	-11.9244
▁एन	-11.9248
oker	-11.9249
जान	-11.926
nother	-11.9262
▁प्रिय	-11.9264
▁तिथिः	-11.9268
▁expressions	-11.9274
▁cross	-11.9278
ॉन्ट	-11.9283
ability	-11.9287
▁SECAM	-11.9291
▁पदावनत	-11.9296
श्रोत	-11.9296
सि	-11.9299
प्टिव	-11.9304
spare	-11.9305
▁कुंजीः	-11.9307
-3	-11.9308
कंड	-11.9308
▁Trans	-11.9311
शीर्षिका	-11.9319
▁AU	-11.9322
struct	-11.9322
लर	-11.9334
ndo	-11.9335
compatible	-11.9338
ently	-11.9341
last	-11.9342
French	-11.9346
▁Execut	-11.9348
▁TT	-11.9351
Vala	-11.9357
▁Logo	-11.9357
▁lu	-11.9358
xes	-11.9361
vi	-11.9362
प्रयोग	-11.9365
संबंध	-11.9366
Register	-11.9369
uld	-11.9371
▁माइक्रोसॉफ	-11.9376
▁अक्षमः	-11.9378
decr	-11.9382
आधार	-11.9383
▁Applications	-11.9387
▁पो	-11.9389
षा	-11.9392
stor	-11.9396
opying	-11.9401
िका	-11.9407
Z	-11.9407
yo	-11.9408
form	-11.9413
hose	-11.9414
▁Exten	-11.9417
MB	-11.9421
▁आग	-11.9422
▁activation	-11.9427
मेलः	-11.9428
win	-11.9433
aturation	-11.9444
▁ends	-11.9444
्रमण	-11.9453
नीचे	-11.9454
लिप्साइ	-11.9466
▁Fore	-11.9473
▁लाएँ	-11.9481
▁profil	-11.9484
▁Forc	-11.9486
Action	-11.9489
हर	-11.9498
▁ऐ	-11.9498
ered	-11.9499
address	-11.9504
जुटा	-11.9516
862	-11.9521
does	-11.9523
▁लड़	-11.9527
yed	-11.9536
su	-11.9539
▁NA	-11.9543
▁इत	-11.9544
▁उत	-11.9557
▁Ju	-11.9563
▁inter	-11.9567
sl	-11.9574
आकार	-11.9575
▁caches	-11.9579
loaded	-11.9584
Delete	-11.9586
gb	-11.9586
▁red	-11.9587
▁पहुँचा	-11.9587
ाइज़	-11.9589
▁Milli	-11.9591
▁जोड़े	-11.9592
प्राथमिकता	-11.9593
▁पलट	-11.9596
सूचना	-11.9602
▁reader	-11.9608
14	-11.9616
▁news	-11.9631
▁शि	-11.9632
▁ट्रांसप	-11.9644
▁period	-11.9651
gdb	-11.9653
मौ	-11.9659
ामा	-11.9662
▁तारीख	-11.9663
eak	-11.9696
▁Clos	-11.9697
lade	-11.9702
ैच	-11.9704
▁फ़ो	-11.9708
कड़ी	-11.9729
AL	-11.9732
vn	-11.9735
▁सीम	-11.9736
▁bl	-11.9738
▁inte	-11.9739
▁br	-11.9744
correct	-11.9747
गया	-11.9749
▁El	-11.9755
▁ओफ	-11.9758
एवोल्यूशन	-11.9761
करने	-11.9762
off	-11.9767
छापें	-11.9775
In	-11.9791
ंद्र	-11.9796
एड	-11.9816
हां	-11.9816
नि	-11.9817
▁चाहिएः	-11.982
account	-11.9828
जिटर	-11.983
स्त	-11.9833
अपडेट	-11.9836
open	-11.9837
▁सृज	-11.9838
नोम	-11.9841
went	-11.9855
▁credit	-11.9857
▁restriction	-11.9857
▁Member	-11.9859
▁maximize	-11.986
network	-11.9863
▁codes	-11.9863
सिंक	-11.9865
ala	-11.9866
▁includ	-11.987
anning	-11.9872
▁Under	-11.9882
त्म	-11.9884
रारंभ	-11.9885
▁indicat	-11.9886
▁बैठ	-11.989
whe	-11.9891
............	-11.9891
्रेष	-11.9893
▁Birth	-11.9894
नुमान	-11.9895
ट्ठा	-11.9895
▁बाकी	-11.9896
दृश	-11.9897
▁PLA	-11.9897
▁रणनीति	-11.9897
▁खर्च	-11.9897
▁strftime	-11.9897
व्रेप	-11.9897
▁Congratulations	-11.9897
▁Duplicate	-11.9897
▁ERROR	-11.9897
▁Receipt	-11.9897
▁symlink	-11.9897
▁उपहार	-11.9897
▁प्रतियोगिता	-11.9897
▁बधाई	-11.9897
▁मल्टी	-11.9897
▁Netscape	-11.9897
▁Reverse	-11.9897
▁Pascal	-11.9897
▁अंतर्राष्ट्रीय	-11.9897
▁श्रीमती	-11.9898
▁PHP	-11.9898
▁PRO	-11.9898
▁Gatekeeper	-11.9898
▁अनुपल	-11.9898
▁York	-11.9898
▁choice	-11.9898
▁मिश्र	-11.9898
▁अंतःस्थापित	-11.9898
▁assignment	-11.9898
▁हॉप	-11.9898
▁Highest	-11.9898
▁ऑ	-11.9898
▁नीति	-11.9899
▁Parenthes	-11.9899
▁Freecell	-11.9899
▁GMail	-11.9899
▁शर्तों	-11.9899
rties	-11.9899
▁mention	-11.99
▁स्टेट	-11.99
▁resizable	-11.9901
▁bool	-11.9901
libgnome	-11.9901
▁Brace	-11.9901
▁Power	-11.9901
▁Org	-11.9902
▁प्रस्त	-11.9902
▁alone	-11.9903
eplace	-11.9903
▁बूल	-11.9903
▁composing	-11.9903
▁प्रकटन	-11.9904
▁unread	-11.9905
▁आचरण	-11.9905
यम	-11.9906
▁Expo	-11.9907
▁बू	-11.9907
सिर	-11.9908
▁Cancell	-11.9908
▁शहरः	-11.9908
लीज	-11.991
2:	-11.991
▁Tutorial	-11.9911
▁Thanks	-11.9911
▁Prope	-11.9911
▁Maj	-11.9912
▁malformed	-11.9913
लोकन	-11.9913
▁initia	-11.9914
▁cleaning	-11.9916
▁beep	-11.9917
▁फ्लैश	-11.9917
▁conditions	-11.9919
योगिक	-11.9919
equence	-11.992
bf	-11.9925
runcate	-11.9926
रक्षित	-11.993
mation	-11.993
horiz	-11.9931
▁Classification	-11.9934
▁pil	-11.9935
bir	-11.9935
parent	-11.994
ोस्टन	-11.9941
Chooser	-11.9941
▁संव	-11.9943
ierarchy	-11.9945
▁editable	-11.9948
▁extend	-11.9949
Out	-11.9951
रद्द	-11.9953
▁कहें	-11.9954
शब्दकूट	-11.9954
Plugin	-11.9957
ictionary	-11.9958
▁तुम	-11.9959
▁Users	-11.9959
▁दोहराए	-11.9959
▁Hot	-11.996
▁Ze	-11.9961
▁हा	-11.9962
▁मह	-11.9964
▁पूर	-11.9964
कुछ	-11.9968
Use	-11.9968
erform	-11.9969
▁जायेगे	-11.997
▁पांचव	-11.997
आउटपुट	-11.9972
शील	-11.9972
▁सहित	-11.9976
very	-11.998
▁खाताः	-11.9982
पुर	-11.9992
▁kbits	-11.9994
▁पाप	-11.9995
Gen	-11.9995
ोता	-11.9997
▁wrapp	-12
color	-12.0003
tamp	-12.0007
sume	-12.0007
ाइल्ड	-12.0017
पा	-12.0017
▁attendees	-12.0024
eographic	-12.003
Jabber	-12.0031
enses	-12.0034
एकबार	-12.0035
▁अपर	-12.0047
▁एच	-12.0051
pect	-12.0056
▁जाएँः	-12.0057
एंगे	-12.0063
▁क्रियान्व	-12.0071
"),	-12.0075
▁बाय	-12.0083
▁olor	-12.0091
▁Forwarding	-12.0093
ंज	-12.0103
custom	-12.011
▁टा	-12.0111
▁indent	-12.0111
ोषण	-12.0112
▁solution	-12.0114
▁स्टेटस	-12.0115
ations	-12.0124
▁FRO	-12.0127
▁1.0	-12.0133
ltered	-12.014
▁Neighbo	-12.014
Folder	-12.0141
ंटर	-12.0143
upplie	-12.0152
▁reasons	-12.0156
पूर्वावलोकन	-12.016
etter	-12.0163
▁Placed	-12.017
िंगः	-12.0173
▁purpose	-12.0181
qual	-12.0183
languages	-12.0185
sentation	-12.0187
▁हायपर	-12.0192
Application	-12.0194
▁बाया	-12.02
▁मन	-12.0205
▁विलोपि	-12.0208
िले	-12.0208
contacts	-12.0211
मानक	-12.0212
ncoming	-12.0215
▁unc	-12.0215
▁ख़	-12.022
▁आन	-12.0224
▁स्ट्री	-12.0227
▁Una	-12.0228
Subject	-12.0228
▁Cap	-12.0231
बुल	-12.0232
▁सर्व	-12.024
्रेश	-12.0243
▁योग	-12.0257
▁Mer	-12.0262
▁Schem	-12.0262
▁देशः	-12.0268
▁Visi	-12.0269
▁Merg	-12.027
पृष्ठ	-12.0274
रेस	-12.0277
tering	-12.028
▁जर	-12.0284
marks	-12.0286
▁टेंप	-12.0289
प्रिंट	-12.0294
ture	-12.03
मत	-12.0303
▁Small	-12.0309
▁pad	-12.0328
ana	-12.0339
पिछले	-12.0342
package	-12.0342
कोडिंग	-12.0351
▁Bak	-12.0352
▁गान	-12.0354
Python	-12.0359
रेशन	-12.0363
voi	-12.0365
▁कितन	-12.0366
▁compare	-12.0373
▁keyring	-12.0378
atches	-12.0384
ज़ा	-12.0392
▁चु	-12.0401
fts	-12.0404
▁acc	-12.0406
▁https	-12.0409
tried	-12.0412
▁रिसे	-12.0427
उलटें	-12.0431
▁delegat	-12.0436
▁आटो	-12.0439
▁टे	-12.0441
▁वेबक	-12.045
पार	-12.046
जबतक	-12.0462
ename	-12.047
िक्स	-12.047
bound	-12.0485
▁Ga	-12.0512
register	-12.0519
ask	-12.0529
▁wi	-12.0535
लागू	-12.0543
~	-12.0547
fore	-12.0554
aj	-12.0556
vcard	-12.0559
eve	-12.0561
ब्रै	-12.0567
फुट	-12.057
simulation	-12.0572
▁Values	-12.0573
rnationalization	-12.0578
▁Sc	-12.0579
position	-12.058
▁timed	-12.0584
Expand	-12.0591
ीयर	-12.0593
▁da	-12.0595
oice	-12.0599
्सेसि	-12.0605
opics	-12.0613
▁जाँचन	-12.0622
▁Mon	-12.0632
टूल	-12.0632
नोट	-12.0641
ateg	-12.066
मुद्र	-12.066
ैप्स	-12.0661
▁rec	-12.0662
▁Til	-12.0669
स्थानः	-12.067
▁Str	-12.0674
ीक्षण	-12.0676
executable	-12.0684
ice	-12.0686
बु	-12.0699
गलत	-12.07
▁टोन	-12.07
समयः	-12.0706
shell	-12.0706
ndant	-12.0712
Working	-12.0713
मः	-12.0717
केवल	-12.0717
▁rep	-12.0719
la	-12.0721
simple	-12.0722
tack	-12.0728
▁registr	-12.0729
म्बा	-12.0739
▁favo	-12.0742
atience	-12.0746
▁kin	-12.0747
Exchange	-12.075
मिलीसेकेंड	-12.0752
ndi	-12.0757
Calendar	-12.0759
Shift	-12.0767
▁Specific	-12.0769
ंग्र	-12.077
सु	-12.0772
▁cyrillic	-12.0784
ॉट	-12.0787
jk	-12.0787
ंटा	-12.0789
▁Collecti	-12.0799
Next	-12.0808
greement	-12.0839
पठन	-12.0844
▁hex	-12.0846
ऑफ	-12.0848
rt	-12.0855
TP	-12.0858
रैम	-12.0859
has	-12.086
▁developer	-12.0871
▁सामग्र	-12.0873
▁Pu	-12.0874
▁अमेरिक	-12.0876
▁sessions	-12.088
lugins	-12.0881
▁Certificat	-12.0882
ethod	-12.0885
nsert	-12.0885
▁Simulat	-12.0892
▁ज्यार्जिय	-12.0893
▁Parent	-12.0895
claration	-12.0896
सम्पाद	-12.0896
ीएलएस	-12.0897
▁advertise	-12.0897
Descending	-12.0897
ूँगा	-12.0897
ॉल्यूशन	-12.0897
▁Archive	-12.0897
▁Confidential	-12.0897
▁OAuth	-12.0897
▁privacy	-12.0897
▁rajesh	-12.0897
▁औपबंधिक	-12.0897
▁लिपटे	-12.0897
▁वृद्धि	-12.0897
▁व्यवस्थापक	-12.0897
▁शुरु	-12.0897
▁समीक्षक	-12.0897
▁honour	-12.0897
▁मैक्रो	-12.0897
▁समेटें	-12.0897
▁Adapt	-12.0897
▁Channel	-12.0897
▁gabble	-12.0897
▁प्रिन्ट	-12.0897
Libtool	-12.0897
बैजर	-12.0897
व्हाइटह	-12.0897
▁Occurrence	-12.0898
▁badger	-12.0898
▁रेकोर्ड	-12.0898
म्सट	-12.0898
▁आरपार	-12.0898
▁Timezone	-12.0898
▁सार्व	-12.0898
▁पकड़	-12.0898
▁exclude	-12.0898
pdf	-12.0899
एथे	-12.0899
RAM	-12.0899
▁ओएस	-12.0899
▁Hotkey	-12.0899
▁प्रदाय	-12.0899
▁Deny	-12.0899
▁चेतावनिया	-12.0899
▁स्थानांतरण	-12.0899
▁ग्रैब	-12.0899
▁Migrating	-12.09
▁समग्र	-12.09
▁फान्ट	-12.09
▁fallback	-12.09
▁ऑफ़	-12.09
रोधी	-12.09
▁ToDo	-12.09
▁क्रास	-12.0901
▁जर्नल	-12.0901
eorg	-12.0901
▁Brune	-12.0901
mpty	-12.0902
▁आउटबॉक्स	-12.0902
▁बढ़ाना	-12.0902
▁outbox	-12.0902
▁Handle	-12.0902
▁मोड़ें	-12.0902
▁Favo	-12.0902
▁redu	-12.0903
स्करण	-12.0903
▁Reviewer	-12.0903
▁ट्रेश	-12.0903
▁लिखेगी	-12.0903
▁बांयें	-12.0903
hagadelic	-12.0904
▁hear	-12.0904
ormat	-12.0904
▁व्यवस्था	-12.0905
चीत	-12.0906
▁agent	-12.0906
▁combined	-12.0906
▁Op	-12.0907
▁Reso	-12.0908
▁व्यवस्थ	-12.0911
▁Stylesheet	-12.0911
▁त्वर	-12.0911
ढ़	-12.0912
क्रियान्व	-12.0913
दर्शित	-12.0915
▁Statement	-12.0916
andom	-12.092
▁आयोजकः	-12.0923
▁fall	-12.0924
anonical	-12.0925
ran	-12.0928
▁Athen	-12.093
ority	-12.0931
bble	-12.0935
▁अच्छे	-12.094
▁टिप्स	-12.0948
्कनेक्टेड	-12.0948
साइफ	-12.0948
ेटर	-12.0949
▁bits	-12.0949
send	-12.0949
▁fails	-12.095
get	-12.0952
back	-12.0953
▁Infor	-12.0953
clean	-12.0955
▁socket	-12.0956
लट	-12.0957
▁Disconnect	-12.0958
▁Rate	-12.096
▁delegated	-12.0961
endl	-12.0964
pipe	-12.0966
▁recurs	-12.0968
▁Spelling	-12.0971
nternational	-12.0972
▁balances	-12.0978
जब	-12.0979
▁padd	-12.0987
▁गु	-12.0988
ancelled	-12.0989
LS	-12.0993
▁199	-12.0995
▁बढ़ाए	-12.0999
linear	-12.0999
▁permit	-12.1002
▁schedule	-12.1003
▁जरुरी	-12.1006
▁integrit	-12.1013
विल	-12.1015
cyrillic	-12.1016
ellphone	-12.1016
ady	-12.1016
▁ignore	-12.1018
sult	-12.1019
▁Invit	-12.102
▁Word	-12.1021
▁Attendees	-12.1024
ीब	-12.1026
SC	-12.103
inki	-12.1032
ंटिंग	-12.1036
uv	-12.1037
dead	-12.1038
▁हुईः	-12.1042
tylesheet	-12.1045
ॉम्प	-12.1049
्मोसि	-12.1049
▁nodes	-12.1052
▁862	-12.1061
▁explo	-12.1062
गोर	-12.1063
ghi	-12.1064
my	-12.1072
▁depend	-12.1076
cvs	-12.1077
दर्शक	-12.1077
▁लिपि	-12.108
पाइथन	-12.1083
ace	-12.109
▁ट्रैकिंग	-12.1092
सरे	-12.1098
भाजन	-12.1102
टोन	-12.1102
▁consisten	-12.1106
ors	-12.1108
र्ड	-12.1113
▁अंतर्	-12.1117
field	-12.1118
▁regard	-12.112
ाट	-12.1121
▁quick	-12.1122
पेज	-12.1126
32	-12.1137
▁गैप	-12.1139
▁गे	-12.1146
▁Wor	-12.1149
board	-12.1153
ीड	-12.1155
za	-12.1156
orrupted	-12.1161
▁limits	-12.1167
रि	-12.117
किया	-12.1172
dvd	-12.1173
emon	-12.1177
story	-12.1179
सकता	-12.1179
स्केल	-12.12
Empathy	-12.1203
▁stor	-12.1214
ique	-12.1215
जीवन	-12.1225
▁Say	-12.1229
eas	-12.1237
▁Bris	-12.1239
▁जंग	-12.124
decimal	-12.1243
▁simulat	-12.1246
utodetect	-12.1257
ee	-12.1259
▁Mat	-12.1268
HTTP	-12.1269
▁(2	-12.1271
0.	-12.1273
CR	-12.1286
▁cryptographic	-12.1288
turkish	-12.1297
नेम	-12.1299
will	-12.13
▁Maxim	-12.13
writable	-12.1303
It	-12.1305
DES	-12.1306
nationalization	-12.1307
▁25	-12.1309
greek	-12.1316
टिप्पणी	-12.1317
z	-12.133
▁scann	-12.1333
▁face	-12.1334
ga	-12.1338
▁ut	-12.1359
ai	-12.137
how	-12.1375
िगा	-12.1377
ending	-12.1381
prob	-12.1387
▁ली	-12.1389
▁विसम	-12.1394
cise	-12.1395
▁देंः	-12.1401
▁बांये	-12.1401
eading	-12.1402
▁3.	-12.1403
iver	-12.1412
▁छापन	-12.1426
▁ढूंढो	-12.1431
न्ड	-12.1436
▁Stopp	-12.144
कै	-12.1442
सकने	-12.1446
▁native	-12.1448
ैन	-12.1454
Filter	-12.1462
rsi	-12.1469
फट	-12.1471
includ	-12.1474
▁पु	-12.1478
▁pur	-12.1479
वाह	-12.1486
grind	-12.1487
▁संस	-12.1491
▁फिक्स	-12.1493
let	-12.1493
▁never	-12.1495
▁हस्ताक्षरः	-12.1497
काटो	-12.1497
▁22	-12.15
▁her	-12.1501
▁hu	-12.1512
200	-12.1513
रचना	-12.1514
साम	-12.1523
iginal	-12.1529
▁पन्न	-12.1533
मुक्त	-12.1544
खा	-12.1562
▁guid	-12.157
ong	-12.1576
tition	-12.158
eather	-12.1584
्चर	-12.1585
जेड	-12.1589
ग्रहित	-12.1592
DB	-12.1594
install	-12.1594
▁बैकें	-12.1597
▁AS	-12.16
लम	-12.1616
▁इसक	-12.1627
गुप्त	-12.1633
▁mails	-12.1635
group	-12.1636
▁UIDs	-12.1644
मौजूद	-12.1657
most	-12.1662
tableau	-12.1665
▁Compa	-12.167
tran	-12.1685
▁Ta	-12.1692
foundation	-12.1693
▁महीना	-12.1698
▁Exam	-12.1701
PC	-12.1705
ंचा	-12.1705
reshold	-12.1709
▁कर्	-12.1718
▁allocati	-12.1725
roll	-12.1725
▁विचर	-12.1725
Global	-12.1729
पोलि	-12.1729
auve	-12.173
▁Cr	-12.1742
्सी	-12.1753
▁Zone	-12.1763
ytes	-12.1766
▁बड	-12.1776
ंडर	-12.1776
▁आईप	-12.1777
used	-12.1787
त्रण	-12.1796
वर्ड	-12.1803
ंतर	-12.1805
▁parti	-12.1811
disabled	-12.1814
positories	-12.1818
▁दर्शक	-12.1819
▁मो	-12.182
ntegrity	-12.1821
▁cvs	-12.1826
▁Ku	-12.1836
Picture	-12.1843
ata	-12.1853
▁ओ	-12.1858
आईडी	-12.1864
▁गा	-12.1866
1.	-12.1869
लु	-12.1875
reply	-12.1875
▁अंतःक्रिया	-12.1879
rive	-12.1884
▁mini	-12.1885
context	-12.1892
ूलर	-12.1898
ौ	-12.1903
▁oppos	-12.1906
▁Just	-12.1908
▁लपेट	-12.1913
▁Playlist	-12.1913
दम	-12.1915
▁ellipsiz	-12.1934
बिक	-12.1937
Could	-12.1938
waste	-12.1939
tune	-12.194
▁gr	-12.194
ated	-12.1945
▁लोडर	-12.1948
▁mis	-12.195
ीम	-12.1955
▁हस्त	-12.196
▁Mont	-12.1963
Subscribe	-12.1966
▁recurrence	-12.1967
▁जाएग	-12.1972
2833	-12.1977
वरि	-12.1983
Outlook	-12.1984
डील	-12.1984
ग्रे	-12.1987
▁Assign	-12.1988
क्रिया	-12.1992
▁शहर	-12.1996
bra	-12.2
Lib	-12.2001
▁कुँजी	-12.2002
▁Histor	-12.2004
valuate	-12.2005
▁thumbnail	-12.2005
▁alphabetical	-12.2006
▁Tentative	-12.2007
▁Strike	-12.2008
Ascending	-12.2009
▁Problem	-12.2009
▁Results	-12.2009
▁convenien	-12.2009
▁delimiter	-12.2009
▁difficult	-12.2009
▁emoticon	-12.2009
▁family	-12.2009
▁splash	-12.2009
▁ईटैलिक	-12.2009
▁एम्बेड	-12.2009
▁कान्फिगर	-12.2009
▁रजिस्ट्रार	-12.2009
▁रजिस्ट्री	-12.2009
▁शुरूआत	-12.2009
▁Phrase	-12.2009
▁भेंजे	-12.2009
▁Caribou	-12.2009
▁inheritance	-12.2009
▁overdue	-12.2009
▁लटकत	-12.2009
▁मॉनीटर	-12.2009
▁प्रकाशक	-12.2009
▁ट्रांसपोर्ट	-12.2009
▁Body	-12.2009
▁वॉल	-12.2009
रेखांकन	-12.2009
▁डेमो	-12.2009
▁कूटलेखन	-12.2009
▁संघ	-12.201
देह	-12.201
▁टॉ	-12.201
Weekday	-12.201
▁वितर्क	-12.201
▁migration	-12.201
भरकम	-12.201
▁बाडी	-12.2011
गू	-12.2011
▁Self	-12.2011
▁Sig	-12.2011
▁Safe	-12.2011
▁contin	-12.2012
मेन्ट	-12.2012
▁Invitation	-12.2012
▁Demo	-12.2012
▁निकलें	-12.2013
▁evaluate	-12.2013
▁gconf	-12.2014
▁टूल्स	-12.2014
▁सरलीकृत	-12.2014
यताएँ	-12.2014
▁logout	-12.2014
डू	-12.2014
गिन	-12.2015
पैगो	-12.2015
▁Anniversaries	-12.2015
टिप्पणीः	-12.2016
▁Suffix	-12.2018
false	-12.2019
पुनः	-12.202
▁Ja	-12.2021
राउंड	-12.2023
▁प्रत्यय	-12.2023
▁und	-12.2023
▁classes	-12.2023
▁ति	-12.2024
ालय	-12.2024
UserName	-12.2028
वेदन	-12.2029
▁unexpected	-12.2029
▁क्लो	-12.2032
बांया	-12.2033
रुप	-12.2036
▁अद्यतनीकरण	-12.2038
▁निचला	-12.2038
मोंटे	-12.2039
26;	-12.2041
iff	-12.2045
irc	-12.2046
वर्तन	-12.2049
▁पार्स	-12.2054
ious	-12.2056
▁ढ	-12.2057
ाइडर	-12.2058
▁खाती	-12.2061
▁Five	-12.2063
▁Resource	-12.2065
ोज़	-12.2066
▁अनचाह	-12.2066
एल	-12.2067
harset	-12.2068
Security	-12.207
oup	-12.2073
stock	-12.2076
▁nothing	-12.2078
bye	-12.2079
▁websites	-12.208
▁Sea	-12.2085
▁अपडेट	-12.2086
डिंग	-12.2091
▁boxes	-12.2093
▁पाल	-12.2096
▁Pan	-12.2104
▁Macros	-12.2105
▁युक	-12.2109
▁subse	-12.2111
▁Count	-12.2124
ल्ट	-12.2127
▁gc	-12.2128
Secur	-12.2128
सीसी	-12.2137
िन्ह	-12.2146
खोलें	-12.2154
▁साम	-12.2156
▁begins	-12.2161
▁निकलन	-12.2169
▁चौब	-12.2187
▁Searches	-12.2188
▁returns	-12.2189
▁tea	-12.219
लक्ष्य	-12.2193
तुल्यकालि	-12.2195
▁माइक्रोस	-12.2199
विस्तार	-12.2208
lip	-12.2215
once	-12.2222
▁Hyperlink	-12.223
▁अवधिः	-12.2233
पति	-12.2235
▁SI	-12.2259
▁desi	-12.2259
टैंप	-12.227
▁phones	-12.2271
help	-12.2273
▁कैन	-12.2275
शेष	-12.2279
leva	-12.2282
▁प्रक्रम	-12.2288
हुआ	-12.229
चौड़ाई	-12.2294
ृह	-12.2301
ठो	-12.2312
INFO	-12.232
ART	-12.2323
▁पैक	-12.2324
▁tracked	-12.2324
rc	-12.2329
▁zer	-12.2329
फील्ड	-12.233
▁Functions	-12.2331
analyzer	-12.2337
lect	-12.2339
▁रैप	-12.2341
▁translation	-12.2348
idate	-12.2351
▁Interp	-12.2357
▁स्कोर	-12.2361
fe	-12.2367
▁स्थल	-12.238
▁roperties	-12.2382
wait	-12.2415
gin	-12.243
stage	-12.2438
tached	-12.2438
ujarati	-12.2445
▁पताका	-12.2447
mbo	-12.2449
▁धु	-12.2459
▁Jan	-12.2461
cut	-12.2461
▁Views	-12.2473
ेय	-12.2473
मन	-12.2474
ियर	-12.2481
▁Seen	-12.2481
▁Seri	-12.2491
ट्रे	-12.25
eveloper	-12.2502
▁न्यून	-12.2504
▁thou	-12.2511
▁Smile	-12.2513
yal	-12.2513
रिक	-12.2514
ाउन	-12.252
ecursive	-12.2526
eturn	-12.253
केंट	-12.2532
▁चिपकाएं	-12.2537
▁Bel	-12.2537
▁लेंग	-12.2542
▁Separat	-12.2545
▁तरफ	-12.2559
एंपेथी	-12.2564
भाग	-12.2566
लिप्स	-12.2571
never	-12.2573
ल्स	-12.2578
endmail	-12.2583
▁बचाएँ	-12.2584
iago	-12.2602
▁Shut	-12.2609
▁Attached	-12.2636
hu	-12.2636
▁दाया	-12.264
▁integ	-12.2643
अलग	-12.2648
table	-12.2655
nterpolate	-12.2658
und	-12.2676
BA	-12.2679
▁1)	-12.2681
ntal	-12.2686
नों	-12.2691
▁ever	-12.2693
्सः	-12.2695
बर	-12.2697
▁Sche	-12.2699
नव	-12.2699
▁Modules	-12.2702
screen	-12.2724
Password	-12.2732
इंग	-12.2732
term	-12.2732
▁Gam	-12.2749
▁पीए	-12.275
▁relat	-12.2754
▁def	-12.2767
▁affect	-12.2768
ख़	-12.277
eries	-12.2778
▁Trip	-12.2779
▁eferences	-12.2782
टि	-12.2784
02	-12.2787
▁rest	-12.2789
ACK	-12.2796
mportant	-12.2796
▁board	-12.2799
mosi	-12.2802
▁reduc	-12.282
▁simul	-12.2821
स्व	-12.2833
▁Minute	-12.2835
Listen	-12.2845
ndicators	-12.2846
▁Logs	-12.2847
ru	-12.2852
▁Hour	-12.2854
एगा	-12.2867
▁issu	-12.2868
tions	-12.2869
ृष्ट	-12.2877
ेम	-12.288
your	-12.2883
▁सिन्	-12.2887
▁ब्ल	-12.2913
▁छुपा	-12.2915
न्य	-12.2916
nix	-12.2923
thy	-12.293
▁ट्रै	-12.2932
ट्री	-12.2933
▁styles	-12.2937
▁Doe	-12.2941
joh	-12.2942
3)	-12.2944
Ur	-12.2946
yption	-12.2946
▁रिवर	-12.295
▁पांच	-12.2952
ंसि	-12.2958
▁Soli	-12.2963
op	-12.2964
ाफ्ट	-12.2964
▁Sta	-12.2971
ual	-12.2978
▁ME	-12.2991
▁कॉन्फ	-12.2992
▁Atte	-12.3
▁Delegated	-12.3
ाफ	-12.3002
▁come	-12.3022
man	-12.3023
▁pply	-12.3025
▁क्षम	-12.3033
कैम	-12.3041
Enable	-12.3041
साओ	-12.3043
▁meetings	-12.3052
▁initial	-12.3072
▁टि	-12.3075
याम	-12.308
▁OA	-12.3085
reate	-12.3091
वैध	-12.3096
नु	-12.3101
बाक्स	-12.3107
ca	-12.3107
irtu	-12.3114
▁ubject	-12.3116
ica	-12.312
chedule	-12.3131
tr	-12.3132
lection	-12.314
▁rewrit	-12.3142
▁बढ़न	-12.3144
57	-12.3145
▁लौट	-12.3146
▁big	-12.3148
▁URLs	-12.3151
isible	-12.3152
हरा	-12.3173
▁पाश	-12.3176
▁releas	-12.3176
ossible	-12.318
▁वाक्	-12.3184
▁fail	-12.3184
▁Lu	-12.3217
wards	-12.3218
▁question	-12.3219
synchronous	-12.3219
AM	-12.3224
▁931	-12.3226
press	-12.3231
▁भ्र	-12.3233
▁छिप	-12.3233
▁निचल	-12.3234
udi	-12.3235
▁बाइ	-12.3237
▁सत्याप	-12.3238
▁अन्यो	-12.324
▁प्रतिलिप	-12.324
ंच	-12.324
त्तरित	-12.324
roatian	-12.3241
plication	-12.3243
▁कुंज	-12.3244
▁रूपांतर	-12.3244
▁combine	-12.3247
▁focus	-12.3248
▁Resum	-12.3249
alidate	-12.3249
celandic	-12.3252
unneling	-12.3252
dist	-12.3252
▁terminate	-12.3252
नुक्रम	-12.3253
नुसार	-12.3254
urmukhi	-12.3256
िंडो	-12.3256
धिक	-12.3256
▁proper	-12.3257
▁संपुष्ट	-12.3257
mponent	-12.3257
▁modifi	-12.3257
संतृप्त	-12.3257
ostscript	-12.3257
▁Acti	-12.3257
▁except	-12.3257
{2}	-12.3258
▁शुक्र	-12.3258
▁बुध	-12.3259
▁empathy	-12.3259
▁डॉयलप	-12.3259
अरेबिक	-12.3259
प्राकृतिक	-12.3259
▁02111-1307	-12.3259
▁Department	-12.3259
▁EFolderList	-12.3259
▁GdkWindowState	-12.3259
▁JHBuild	-12.3259
▁Mechanism	-12.3259
▁Profession	-12.3259
▁Replies	-12.3259
▁Snooze	-12.3259
▁bandwidth	-12.3259
▁confidential	-12.3259
▁druid	-12.3259
▁substitut	-12.3259
▁xmldb	-12.3259
▁गेटवे	-12.3259
▁जीवनसाथी	-12.3259
▁जैब्बर	-12.3259
▁डायरेक्ट्री	-12.3259
▁ढूढ़	-12.3259
▁तालिका	-12.3259
▁प्रविष्ठि	-12.3259
▁बैंडविड्थ	-12.3259
▁प्रोक्सी	-12.3259
armscii	-12.3259
साइसर	-12.3259
▁Adblock	-12.3259
▁Retract	-12.3259
▁वॉल्यूम	-12.3259
▁wxyz	-12.3259
▁दुहरायें	-12.3259
▁Passphrase	-12.3259
▁freenode	-12.3259
▁व्यवधान	-12.3259
▁advertisements	-12.3259
ऊर्ध्वाधर	-12.3259
पट्	-12.3259
▁डिपेंड	-12.3259
▁प्रकाशन	-12.3259
libtool	-12.3259
यूआई	-12.3259
डीडेट	-12.3259
▁Predicti	-12.3259
▁surname	-12.3259
▁आउटबाक्स	-12.3259
बीसीसी	-12.3259
▁कंट्र	-12.3259
▁पुनरावृत्ति	-12.3259
▁Colour	-12.3259
▁Storage	-12.3259
▁xyz	-12.3259
▁मंगल	-12.326
▁php	-12.326
▁queue	-12.326
▁लाइव	-12.326
ftp	-12.326
संपीड	-12.326
▁Hula	-12.326
लाइट	-12.326
epiphany	-12.326
टकें	-12.3261
▁एक्सेर	-12.3261
▁devel	-12.3261
▁bala	-12.3261
▁Encr	-12.3261
▁III	-12.3261
ktop	-12.3261
▁परेशानी	-12.3262
textentry	-12.3262
VAL	-12.3262
▁incognito	-12.3262
uzz	-12.3262
▁सोम	-12.3262
▁ब्लॉग	-12.3263
डबल	-12.3263
▁पाँच	-12.3264
▁शनि	-12.3264
▁ZIP	-12.3265
▁WARN	-12.3266
ICE	-12.3266
384	-12.3267
▁individually	-12.3267
▁Beep	-12.3267
बादी	-12.3268
▁IPv	-12.3268
255	-12.3269
▁Ols	-12.3269
▁Telephony	-12.327
▁मेट्रि	-12.3271
त्रिक	-12.3272
▁ccc	-12.3272
▁Stand	-12.3274
euc	-12.3275
▁Annotat	-12.3275
▁reject	-12.3276
▁Blog	-12.3276
timedata	-12.328
ENT	-12.3281
kg	-12.3283
onospace	-12.3284
▁कोशिका	-12.3285
▁निमंत्र	-12.3285
▁उल्ट	-12.3285
ection	-12.3285
▁Pack	-12.3286
▁smooth	-12.3286
▁लपेटा	-12.3287
▁Detail	-12.3288
TL	-12.3289
▁crashes	-12.3289
▁spee	-12.329
uspend	-12.329
्यम	-12.3291
▁931"	-12.3292
alendar	-12.3292
रोज	-12.3293
emove	-12.3295
John	-12.3301
ecide	-12.3301
▁सोच	-12.3303
FO	-12.3303
▁recurrences	-12.3306
पेस्ट	-12.3308
▁Ob	-12.3309
▁भु	-12.3309
▁Camel	-12.331
▁tray	-12.3312
▁छाँटे	-12.3313
ँः	-12.3317
▁करेगी	-12.3318
▁टन	-12.3319
टेलिफोनी	-12.3323
र्यक	-12.3325
IM	-12.3328
▁पन्ने	-12.333
क्वा	-12.3331
▁Cli	-12.3334
▁pid	-12.3336
रबा	-12.3338
lor	-12.3338
▁Gen	-12.3344
बदलो	-12.3351
Fit	-12.3353
▁ndees	-12.3354
मिटाने	-12.3364
▁stopped	-12.3365
▁tim	-12.337
▁Cast	-12.3371
▁informati	-12.3376
▁कांफ	-12.3376
▁statistics	-12.3376
परिवर्तित	-12.3377
▁पाथ	-12.3377
▁करेंगे	-12.3378
OP	-12.3386
▁Justif	-12.339
रेंसिंग	-12.34
nches	-12.3401
विन्यास	-12.3402
rance	-12.3411
▁unk	-12.3413
▁टूटा	-12.3415
ेज़	-12.3421
▁resolv	-12.3433
▁inline	-12.3434
दु	-12.3444
▁Generates	-12.3445
▁(6)	-12.3447
128	-12.3449
मूलभूत	-12.345
lass	-12.3461
दि	-12.3465
league	-12.3468
▁पाइल	-12.3472
Address	-12.3478
oordinate	-12.3484
ream	-12.3489
requent	-12.3493
▁मांग	-12.3498
onsole	-12.3501
▁हेल	-12.3501
▁safe	-12.3504
क्षेप	-12.3504
elect	-12.3508
aneous	-12.3513
ist	-12.3515
▁transmitt	-12.3515
echn	-12.3522
्कल	-12.3531
▁"2.	-12.3532
ule	-12.3534
requested	-12.354
▁deprecated	-12.354
▁CRL	-12.3541
rid	-12.3542
ependencies	-12.3543
▁'.	-12.3562
▁recip	-12.3563
▁भारी	-12.3566
पादि	-12.3579
▁Ti	-12.3583
▁मीटर	-12.359
point	-12.3594
...)	-12.3595
mar	-12.3596
otify	-12.3596
urs	-12.3601
▁Fl	-12.3613
▁Stra	-12.3622
▁DT	-12.3629
▁err	-12.3634
Sent	-12.3635
topped	-12.3635
▁यथा	-12.3638
▁weeks	-12.3638
empty	-12.3655
स्पॉ	-12.3656
▁skip	-12.366
ging	-12.3661
Permission	-12.3662
NS	-12.3672
▁localize	-12.3672
वर्क	-12.3675
निक	-12.3676
दक्षिण	-12.3677
▁जरूरीः	-12.3681
yper	-12.3682
▁confirm	-12.3684
एफ़	-12.3684
we	-12.3692
▁cover	-12.3712
ommon	-12.3714
Texture	-12.3719
#-#-#-#-#	-12.3719
Match	-12.372
hader	-12.372
ोर्ज	-12.3727
transition	-12.3728
▁Jam	-12.3737
Pixmap	-12.3738
▁विस्थाप	-12.3742
▁रहें	-12.3746
Shrink	-12.3752
▁Le	-12.3766
पूर्वावलोकनः	-12.3766
र्स	-12.3769
atio	-12.3769
▁कालः	-12.377
▁Imp	-12.3771
▁Const	-12.3771
बिल	-12.3783
GLSL	-12.3794
▁Building	-12.3799
▁Ed	-12.3804
presence	-12.3805
▁Quality	-12.381
▁वर्ष	-12.3814
indi	-12.3819
ॉल्ट	-12.3828
Flag	-12.3839
ster	-12.3842
ssh	-12.3847
ourse	-12.3848
roduct	-12.385
birthday	-12.385
Pop	-12.3852
चोट	-12.3856
rub	-12.3859
▁II	-12.3869
स्थिति	-12.3878
▁cameras	-12.3879
व्यवहार	-12.3879
▁Des	-12.3881
ST	-12.389
Cc	-12.3893
▁subscrib	-12.3897
▁बचाओ	-12.39
ैप	-12.39
war	-12.3906
▁Maz	-12.3918
emi	-12.3921
वितर	-12.3927
nicode	-12.3928
ब्र	-12.3931
int	-12.3937
समापन	-12.3946
▁फ्रै	-12.3963
वे	-12.3963
श्	-12.3963
▁sorted	-12.3963
▁हे	-12.3964
vim	-12.3975
▁Centr	-12.3978
audio	-12.3984
OD	-12.399
नेट	-12.3996
ounds	-12.4008
रोध	-12.4014
mania	-12.4021
dvi	-12.4025
ाम	-12.4034
ेंस	-12.4035
चिपकाएं	-12.4037
alltip	-12.4038
येगा	-12.4042
▁migrat	-12.4048
▁जोड़त	-12.4049
50,	-12.4056
▁शे	-12.4064
▁Tr	-12.4065
▁फार्	-12.4068
toc	-12.4069
cover	-12.408
लित	-12.4085
जै	-12.4095
gent	-12.41
▁लाइसे	-12.411
▁gate	-12.4111
nes	-12.4112
that	-12.4117
ाया	-12.4122
▁eme	-12.4139
▁Minim	-12.414
aka	-12.4141
▁धार	-12.4142
ned	-12.4151
▁कान	-12.4158
▁दिला	-12.416
notation	-12.4163
ांश	-12.4167
▁सौ	-12.4169
▁identifie	-12.4173
▁ग्राफिक	-12.4174
ME	-12.4179
--------	-12.4179
fast	-12.4183
स्टाक	-12.4188
▁Sol	-12.4199
क्षित	-12.42
▁reach	-12.421
न्	-12.4214
▁इंटरप	-12.4231
समूहीकृत	-12.4232
emacs	-12.4238
Esc	-12.4243
him	-12.425
RP	-12.4263
▁लं	-12.4269
Work	-12.4271
vious	-12.4276
फोर्	-12.4276
tex	-12.4277
stere	-12.4291
9"	-12.4293
lator	-12.4296
ीवे	-12.4296
▁वेल	-12.4298
riti	-12.431
यामी	-12.4321
asing	-12.4323
ज्व	-12.4372
▁बढ़ा	-12.4375
ape	-12.4375
▁एक्सेस	-12.4385
ERC	-12.4386
▁विश्व	-12.4401
▁गै	-12.4404
▁wa	-12.4405
▁multip	-12.4412
1.0	-12.4413
20)	-12.4415
clude	-12.4444
▁बुल	-12.4449
ffe	-12.4452
mmy	-12.4464
ांटें	-12.4469
ापी	-12.4491
यर्स	-12.4509
▁ब्लॉ	-12.4509
▁आया	-12.4514
▁Ag	-12.4517
▁Vert	-12.453
▁Fort	-12.4532
lideshow	-12.4536
topic	-12.4536
tatistics	-12.454
ackets	-12.4549
sq	-12.4553
ेयर	-12.4555
▁Cat	-12.4558
▁Interna	-12.4559
Messages	-12.456
▁बदलन	-12.4561
विधि	-12.4561
▁appro	-12.4561
कार्ड्स	-12.4568
तेज	-12.4578
वात	-12.458
pet	-12.4597
▁ring	-12.4598
inch	-12.46
yp	-12.461
▁chrome	-12.461
▁जीत	-12.461
ield	-12.4613
eeds	-12.4613
बे	-12.4614
▁Relati	-12.4618
▁western	-12.4624
uffix	-12.4627
▁horiz	-12.4634
ात्	-12.4635
डीपी	-12.4637
Debug	-12.4639
▁GO	-12.4642
round	-12.4642
ccuracy	-12.4644
मुख	-12.4645
▁ढूँढ	-12.4646
▁Attribute	-12.4647
▁subfolder	-12.4649
▁year	-12.4654
प्रत्याशित	-12.466
hotograph	-12.4661
न्वयन	-12.4663
हेड	-12.4665
उपयोग	-12.4667
▁संगठ	-12.4667
▁तरीक	-12.4671
▁uid	-12.4674
▁Unsubscrib	-12.4676
▁Priori	-12.4676
implified	-12.4677
▁refuse	-12.4677
▁messag	-12.468
dn	-12.4682
ारंटी	-12.4685
abel	-12.4685
▁Decode	-12.4686
बन्ध	-12.4687
▁एस्लेरिय	-12.4687
अपराह्न	-12.4687
चिपकाओ	-12.4687
▁Balance	-12.4687
▁Digital	-12.4687
▁January	-12.4687
▁Secret	-12.4687
▁Tuesday	-12.4687
▁procedure	-12.4687
▁आयडेंट	-12.4687
▁नक़्श	-12.4687
▁शीर्षकविहीन	-12.4687
▁Twitter	-12.4687
▁reception	-12.4687
▁structure	-12.4687
▁जेब्रा	-12.4687
END	-12.4687
▁भरोसे	-12.4687
▁Resolution	-12.4687
▁ज़ेन	-12.4687
bbrev	-12.4687
▁ऑटो	-12.4687
Subtree	-12.4688
▁admin	-12.4688
▁सबफोल्डर	-12.4688
▁deletion	-12.4688
▁Keyboard	-12.4688
श्चिक	-12.4689
▁capable	-12.4689
▁Thumb	-12.4689
yrin	-12.469
▁Execution	-12.469
ette	-12.469
▁चढ़ा	-12.469
▁Notice	-12.469
▁Undelete	-12.4691
▁संदेह	-12.4691
▁VCard	-12.4691
▁समतल	-12.4692
▁चेहर	-12.4693
▁si	-12.4693
52	-12.4694
▁बनायेगा	-12.4694
▁Circ	-12.4694
▁हिल	-12.4695
ystem	-12.4696
▁Esca	-12.4697
Mails	-12.4697
▁Guides	-12.4697
▁फेंट	-12.4697
▁एल्	-12.4697
ॉयल	-12.4699
▁Lab	-12.4701
▁रिज	-12.4702
kB	-12.4702
race	-12.4702
▁बाज	-12.4703
alizing	-12.4703
▁पोस्टिंग	-12.4704
▁ब्ला	-12.4705
▁occured	-12.4706
ुकी	-12.4706
treet	-12.4707
ultiplier	-12.4713
▁बजाएं	-12.4716
▁power	-12.4717
▁exceeds	-12.4718
ocket	-12.4718
ालन	-12.4719
▁चयनकर्ता	-12.4719
च्छ	-12.4721
ACT	-12.4722
ाँट	-12.4725
▁दौर	-12.4728
Escape	-12.4729
▁चुनकर	-12.473
▁publishing	-12.4734
▁Here	-12.4734
थाई	-12.4735
▁ie	-12.4739
iamond	-12.475
▁उलटे	-12.475
लियन	-12.4751
▁SS	-12.4752
▁Assigned	-12.4757
%%%%	-12.4759
already	-12.4762
istinguish	-12.4763
▁Subscriptions	-12.4769
गै	-12.4769
▁Lag	-12.4775
▁alias	-12.4775
▁जर्न	-12.4776
▁Star	-12.4779
▁कियाः	-12.4779
कृपया	-12.4781
▁logo	-12.4781
▁क्ष	-12.4784
ोश	-12.4785
talic	-12.4793
प्रवास	-12.4794
▁संचर	-12.4798
ffic	-12.4799
▁संगठनः	-12.4806
▁applie	-12.4809
▁बर	-12.4818
blanc	-12.4819
ire	-12.482
nverted	-12.4821
पाइले	-12.4823
संग्रह	-12.4824
रें	-12.4827
समाप्त	-12.4836
▁dog	-12.4838
▁पट्ट	-12.4841
▁डेम	-12.4842
▁चेत	-12.4843
tell	-12.4859
सै	-12.4865
▁Pil	-12.4884
bul	-12.4885
दल	-12.489
▁Tre	-12.4891
▁supp	-12.4898
▁नेट	-12.4898
▁vCards	-12.4899
▁graphic	-12.49
▁Am	-12.4901
तांत	-12.4903
न्यू	-12.4907
Document	-12.4908
पिक्सल	-12.4909
ानांतर	-12.4911
plica	-12.4911
ools	-12.4911
▁Wid	-12.4915
सत्र	-12.4918
onsistency	-12.492
onsider	-12.4921
▁Called	-12.4927
enied	-12.493
njoy	-12.4934
ertigo	-12.494
▁configur	-12.4947
▁देर	-12.495
agnification	-12.4957
▁Cate	-12.4958
गतिशील	-12.496
caps	-12.4962
300	-12.4968
▁कठ	-12.497
▁रेड	-12.4971
▁che	-12.4973
▁टै	-12.4978
मान्	-12.498
Default	-12.4981
......	-12.4988
ook	-12.499
बन्द	-12.4992
▁सो	-12.4992
र्ग	-12.4993
र्नर	-12.4999
गाड	-12.5
ins	-12.5001
संपादित	-12.501
▁ar	-12.5011
डेक्स	-12.5016
▁gla	-12.5022
क्लाइंट	-12.5027
्रेड	-12.5031
अधिक	-12.5032
mark	-12.5035
ccordi	-12.5038
ृत	-12.504
true	-12.5047
ncapsulate	-12.5049
ap	-12.505
orting	-12.505
▁फट	-12.5052
Icon	-12.5053
▁took	-12.5056
agle	-12.5064
▁फाइलो	-12.5066
▁Labels	-12.507
ow	-12.5073
▁फा	-12.5074
▁Ring	-12.5079
asks	-12.5087
ंबा	-12.5096
les	-12.5097
eeting	-12.51
td	-12.5109
परियोजना	-12.511
▁पायाः	-12.511
सक्षम	-12.5116
SP	-12.5125
▁मोन	-12.5127
पोसिटरी	-12.5128
▁Unsort	-12.5129
ush	-12.513
window	-12.5132
्ते	-12.5138
▁(1)	-12.5149
ै	-12.5149
▁reporte	-12.5154
▁Esc	-12.5162
ाउ	-12.5169
िंट	-12.5177
OK	-12.518
▁Syn	-12.5182
▁Integ	-12.5184
ताः	-12.5188
▁dat	-12.519
विषय	-12.5194
रंज	-12.5199
ille	-12.5204
ouch	-12.5212
ol	-12.5219
colo	-12.522
्यांश	-12.5228
पस्क	-12.5229
▁deal	-12.5234
uel	-12.5237
nl	-12.5241
▁\	-12.5243
▁Gua	-12.5244
ोरिथम	-12.525
▁रहेग	-12.5251
debug	-12.5252
▁शीर्षिकाः	-12.5252
wa	-12.5253
अग्रेषित	-12.5259
display	-12.5262
client	-12.5271
▁संप्रेष	-12.5273
हे	-12.5281
ब्रिस	-12.5294
्नू	-12.5294
arest	-12.5294
ings	-12.5304
स्ति	-12.5311
▁~/	-12.5323
वो	-12.5324
ग्न	-12.5325
▁Encod	-12.5326
ृ	-12.534
▁Ter	-12.5353
कें	-12.5356
egin	-12.5356
ंख	-12.5359
▁sets	-12.5361
reason	-12.5361
▁तार	-12.5366
aste	-12.5367
ध्या	-12.5386
उत्तर	-12.5392
check	-12.5401
▁मात	-12.5401
onflicted	-12.5403
आज	-12.5411
Evolution	-12.5412
▁विश्वस	-12.5421
इसव	-12.5424
ोल्ड	-12.5425
07	-12.5432
ट्र	-12.5433
परी	-12.5434
urge	-12.5437
52)	-12.544
▁Ar	-12.545
▁Gol	-12.5451
▁सर्	-12.5457
ag	-12.546
ोसिय	-12.5467
नेल	-12.5469
PGP	-12.5479
ास	-12.5481
हटायें	-12.5488
्डर	-12.5503
पायें	-12.551
Categor	-12.5522
वैकल्पिक	-12.5531
Fi	-12.5532
▁neg	-12.5538
its	-12.5541
needed	-12.5541
▁बहि	-12.5543
eys	-12.5562
ber	-12.5568
ाच	-12.5575
ser	-12.5585
pass	-12.5589
▁प्रो	-12.5592
़ाई	-12.5592
▁लक्ष	-12.5597
alling	-12.56
स्थानीय	-12.5601
ely	-12.5605
change	-12.5606
्लोन	-12.5622
▁bugs	-12.5624
HA	-12.5625
▁सफ	-12.5629
NAM	-12.5633
data	-12.5637
जर	-12.5646
ets	-12.5648
▁tacts	-12.5657
kers	-12.5661
ोड़	-12.5666
PR	-12.5667
▁घटान	-12.5676
nction	-12.5686
▁थ्रे	-12.5691
▁पद	-12.5703
णिक	-12.5704
लिये	-12.5705
Bcc	-12.5706
nju	-12.5713
▁cryptograph	-12.5714
arato	-12.5717
requ	-12.5718
तरित	-12.5719
▁आलेख	-12.5719
तरू	-12.5723
ries	-12.5723
सका	-12.5728
ctor	-12.573
्टैं	-12.5733
पुर्	-12.5734
ho	-12.5736
ob	-12.5744
nickname	-12.5745
ियल	-12.5745
स्य	-12.5761
निकट	-12.5762
बीए	-12.5768
रित	-12.5781
bur	-12.5782
People	-12.5783
▁सिफ	-12.5797
iations	-12.5821
▁DB	-12.5822
inging	-12.5843
ूर्ण	-12.5853
role	-12.5854
संशोध	-12.5858
▁Tentatively	-12.5858
पान	-12.5861
दिनः	-12.5862
रोकें	-12.5863
संशोधनीय	-12.5867
▁Bu	-12.587
▁विन	-12.5875
दीव	-12.5878
▁माह	-12.5881
▁Mag	-12.5883
द्रित	-12.5889
▁dvd	-12.5899
ॉन	-12.5903
Start	-12.5912
gra	-12.592
सम	-12.5922
twork	-12.5935
▁Tempora	-12.5939
पोल	-12.594
▁Lat	-12.5953
ference	-12.5966
ाँच	-12.597
da	-12.5975
मिटाए	-12.5976
▁जोडे	-12.5976
ज्ञा	-12.5983
ishing	-12.599
िफ़	-12.5997
select	-12.6002
उदाहरण	-12.6005
▁Ki	-12.6008
Account	-12.6014
▁Red	-12.6015
amin	-12.6016
सेस	-12.6017
अधिकतम	-12.6029
▁spo	-12.6029
▁bi	-12.603
पला	-12.6039
▁छुपान	-12.604
क्षैतिज	-12.6045
चुनें	-12.6063
▁terminat	-12.6063
▁Interact	-12.6073
▁expected	-12.6076
rner	-12.6089
ume	-12.6089
eatures	-12.6093
▁आए	-12.6098
▁क्रो	-12.6115
llo	-12.6117
tes	-12.6122
▁स्टि	-12.6124
cus	-12.6127
ैनल	-12.613
▁आपात	-12.6152
ording	-12.6153
▁सद	-12.6161
▁Plai	-12.6173
अद	-12.618
उन	-12.6184
ndefined	-12.6186
valid	-12.6189
ang	-12.6191
▁misc	-12.6199
जाना	-12.6201
▁uns	-12.6203
▁Nor	-12.6204
वृत्त	-12.6209
लन	-12.6213
ुर	-12.6219
ph	-12.6226
pm	-12.6228
ुआ	-12.623
▁GPG	-12.6238
निया	-12.6244
mes	-12.6244
यक	-12.6245
tor	-12.6245
▁ukrainian	-12.6251
खी	-12.6254
▁पूर्वाह्न	-12.6263
साइरिलिक	-12.6268
▁urce	-12.6268
hua	-12.6269
विश्लेषण	-12.6276
▁निर्गम	-12.629
ppend	-12.6291
ोजन	-12.6295
▁Trac	-12.6303
GN	-12.631
▁act	-12.631
▁duplicate	-12.6311
▁suggestion	-12.6313
▁condition	-12.6313
▁दू	-12.6315
त्व	-12.6315
▁Keyword	-12.6316
प्शन	-12.632
dministrator	-12.6321
ज्ञ	-12.6325
पादन	-12.6327
▁Ho	-12.633
आन	-12.6333
▁Ri	-12.6336
ersonal	-12.6337
▁CR	-12.634
source	-12.6341
▁परिवर्ध	-12.6341
▁Itali	-12.6342
▁constrain	-12.6343
▁फैक्टर	-12.6345
ोल्यूशन	-12.6346
▁Purg	-12.6347
▁encounter	-12.6347
▁disconnect	-12.6347
▁Summar	-12.6349
▁पुनर्निर्देश	-12.6349
▁कुंजीपट	-12.635
▁चौड़ा	-12.635
श्चात	-12.6351
▁matri	-12.6351
▁कैप्	-12.6352
रिवर्तन	-12.6352
▁Render	-12.6352
▁महत्	-12.6352
isited	-12.6353
▁prox	-12.6353
style	-12.6353
▁Constrain	-12.6353
celerate	-12.6353
▁align	-12.6353
celeration	-12.6354
▁communicati	-12.6354
अण्डरलाइन	-12.6354
डाउसन	-12.6354
देवनागरी	-12.6354
▁DOWN	-12.6354
▁Disturb	-12.6354
▁Thursday	-12.6354
▁Yakut	-12.6354
▁bonobo	-12.6354
▁connectivity	-12.6354
▁तलाश	-12.6354
▁दुर्बल	-12.6354
▁बैलेंस	-12.6354
▁रिफरेंस	-12.6354
▁संदूक	-12.6354
▁2231	-12.6354
▁प्रामाण	-12.6354
LETE	-12.6354
▁एसएसएल	-12.6354
▁जनवरी	-12.6354
▁Memcheck	-12.6354
▁interrupted	-12.6354
OfTheMeeting	-12.6354
नोवो	-12.6354
▁WARNING	-12.6354
gvim	-12.6354
▁'{1}'	-12.6354
▁aborting	-12.6354
▁Queue	-12.6354
▁Resync	-12.6354
▁Wizard	-12.6354
▁GtkSource	-12.6354
▁Until	-12.6354
टोंगा	-12.6354
▁स्क्र	-12.6354
डोमिन	-12.6354
▁automation	-12.6354
▁Job	-12.6355
▁एलडी	-12.6355
▁organize	-12.6355
spamc	-12.6355
▁Browsing	-12.6355
▁द्धि	-12.6355
▁Unseen	-12.6355
ंक्शन	-12.6355
▁Debugging	-12.6356
वर्तनीय	-12.6356
▁फार्म	-12.6356
गुए	-12.6356
रेक्ट	-12.6356
▁strong	-12.6356
▁Dawson	-12.6356
▁paste	-12.6356
OME	-12.6357
gory	-12.6357
मार्क्	-12.6357
▁Grep	-12.6357
2009	-12.6357
▁Aqt	-12.6357
▁Chair	-12.6357
auti	-12.6357
▁निष्पादित	-12.6358
▁मजबूत	-12.6358
▁रेफ	-12.6358
▁दिखाएगा	-12.6358
▁Varia	-12.6358
▁thumbnailer	-12.6359
▁करेगे	-12.6359
ुप्त	-12.6359
मोंट्	-12.636
▁Pago	-12.636
्षित	-12.6361
EF	-12.6361
▁Monospace	-12.6362
ross	-12.6363
▁Gradient	-12.6363
▁decide	-12.6364
proposal	-12.6364
▁Mono	-12.6364
reachable	-12.6365
▁Colo	-12.6365
▁गुजर	-12.6366
▁pack	-12.6367
▁abc	-12.6367
▁distinguish	-12.6367
▁Finished	-12.6369
▁Mem	-12.6372
पोर्टो	-12.6374
▁Tell	-12.6375
▁annotation	-12.6375
▁Novo	-12.6378
कृति	-12.6379
▁हुला	-12.6379
▁टेक्स	-12.638
▁DNS	-12.638
▁एफ	-12.638
रूपण	-12.6381
गुआड	-12.6382
▁भूलना	-12.6382
▁आयें	-12.6382
ti	-12.6382
क्रैस	-12.6384
▁सीसी	-12.6386
कल्प	-12.6387
▁past	-12.6388
Shown	-12.6389
▁Guad	-12.639
itations	-12.6393
द्व	-12.6395
▁उत्प्रवासन	-12.6395
▁Ser	-12.6395
▁duplicates	-12.6397
पूल	-12.6399
atar	-12.6399
▁सकें	-12.64
वेर	-12.6401
ंदर	-12.6401
▁years	-12.6403
euro	-12.6405
oes	-12.6406
▁Qu	-12.6406
▁expire	-12.6407
Authentication	-12.6409
isp	-12.6411
▁छुपाने	-12.6411
ून	-12.6415
▁player	-12.6417
नौ	-12.6419
गआउट	-12.642
पहुंचने	-12.642
itation	-12.642
जाती	-12.6421
▁खीच	-12.6421
बाएं	-12.6423
जापानीस	-12.6425
▁छांटे	-12.6426
▁Sans	-12.6433
काओ	-12.6435
▁संतु	-12.6438
▁45.	-12.6439
new	-12.6444
▁UP	-12.6453
▁acting	-12.6473
▁Har	-12.6479
▁prim	-12.6483
uthorities	-12.6492
▁लड	-12.6494
paque	-12.6494
index	-12.6502
apture	-12.6502
▁Dar	-12.6503
ांकित	-12.6505
▁definitions	-12.6505
city	-12.6507
▁सूचीकरण	-12.651
ेण्ड	-12.6514
mask	-12.6518
आक	-12.6522
्धन	-12.653
यूरोप	-12.653
pri	-12.6538
icrophone	-12.6542
Europe	-12.6543
▁कोटेड	-12.6546
▁Par	-12.6547
lipboard	-12.6557
▁Templates	-12.6568
▁FT	-12.657
▁Restor	-12.6571
}-	-12.6573
छल	-12.6573
▁xp	-12.6577
▁Que	-12.6579
baba	-12.658
तुर्	-12.658
▁So	-12.6581
व्यस्तः	-12.6583
▁विस्थापन	-12.6586
10	-12.6589
olors	-12.6594
स्वीकार्य	-12.6595
▁Shel	-12.6596
क्	-12.6609
सूत्र	-12.6613
टों	-12.6618
alk	-12.6622
▁एस	-12.6622
ट्यू	-12.663
▁विस्तारक	-12.6633
nniversaries	-12.6636
bi	-12.6641
▁छापे	-12.6642
word	-12.6649
arra	-12.6651
▁Ni	-12.6655
ieve	-12.6656
Select	-12.6668
विन्यस्त	-12.6673
rer	-12.6674
▁नियुक्त	-12.6677
ayl	-12.6683
▁पूछता	-12.6685
task	-12.6689
secu	-12.6691
ord	-12.6719
उल	-12.6719
want	-12.672
्यूट	-12.6721
▁quoted	-12.6741
तन	-12.6744
pt	-12.6751
lexi	-12.6751
बह	-12.6756
जाएँ	-12.6756
्रु	-12.6757
Vertical	-12.6763
activate	-12.6766
कॉर्ड	-12.6768
▁आवर	-12.6768
Import	-12.6771
▁popula	-12.6773
ik	-12.6779
कैमरा	-12.678
stan	-12.6783
spell	-12.6786
वास	-12.679
ac	-12.679
gt	-12.6793
▁renam	-12.6794
लुस	-12.6802
अम	-12.6802
तमिल	-12.6805
▁अछ	-12.6811
ब्लि	-12.6816
Title	-12.6833
अंतिम	-12.6838
ैक्ट	-12.6839
▁गंत	-12.6842
nteractive	-12.6857
nal	-12.6858
▁dragg	-12.6859
▁एमए	-12.6859
साल	-12.686
▁हमल	-12.687
▁sti	-12.6876
enti	-12.6881
उपयोगकर्ता	-12.6882
anger	-12.6885
say	-12.6886
▁browse	-12.6887
▁मुफ	-12.6888
्व	-12.6901
poch	-12.6903
▁War	-12.6903
▁रवि	-12.6904
समाप्ति	-12.6915
ाताः	-12.6917
▁dd	-12.6923
ollection	-12.6924
serve	-12.6925
uck	-12.6927
वतः	-12.6931
ormalization	-12.6935
मल	-12.6939
एक्ट	-12.694
रेक	-12.6949
्ल	-12.6964
recurr	-12.6966
ration	-12.6967
macs	-12.6967
▁रिस	-12.6967
▁Vo	-12.6969
▁ddress	-12.6972
▁'/'.	-12.6973
चो	-12.6981
70	-12.6986
depend	-12.7006
agad	-12.7012
▁June	-12.7014
▁Blo	-12.7014
टॉक	-12.7016
▁Uncomm	-12.7022
allow	-12.7022
▁Wo	-12.7023
ट्रैक	-12.7026
आई	-12.7027
▁Squ	-12.7028
disable	-12.7037
large	-12.7042
▁Sha	-12.7049
entu	-12.7049
ffects	-12.7051
▁mailer	-12.7054
▁Act	-12.7067
रॉट	-12.7068
मर्	-12.7074
हरी	-12.7091
मै	-12.7093
itive	-12.7095
▁Ka	-12.7098
▁IMA	-12.7098
▁प्रत्या	-12.7099
You	-12.7099
▁elete	-12.71
calendar	-12.7104
▁mu	-12.7114
rp	-12.7115
▁acce	-12.7118
बना	-12.713
messages	-12.7133
▁हैडर	-12.7138
▁Handl	-12.7148
र्स्ट	-12.7151
ऊंचाई	-12.7154
geo	-12.7165
events	-12.7181
track	-12.7188
ontact	-12.7197
sta	-12.721
ness	-12.721
▁pa	-12.7211
पाइन	-12.7213
▁autodetector	-12.7217
done	-12.7225
▁दर्शन	-12.7236
▁रोके	-12.7241
आयात	-12.7267
ित्र	-12.7277
ig	-12.7278
काटें	-12.728
ज्यादा	-12.7281
▁कॉ	-12.7286
खराब	-12.7308
▁दश	-12.731
niversal	-12.7315
करता	-12.7318
(%	-12.7325
▁उद्	-12.733
tly	-12.7335
अर	-12.7347
translat	-12.7353
ग्रै	-12.7355
ura	-12.7366
▁lowe	-12.7372
टिमा	-12.7378
केन	-12.7387
nloaded	-12.739
EST	-12.7397
▁कैमर	-12.7403
ध	-12.7407
tches	-12.745
मध्य	-12.745
▁mo	-12.7453
टोग	-12.7455
▁स्थाना	-12.7456
▁Sy	-12.7457
▁Cor	-12.7465
जन्मदिन	-12.7465
poli	-12.7466
tabs	-12.7475
ure	-12.7476
बिंदु	-12.7499
आटोडिटेक्टर	-12.7502
▁सहा	-12.7502
▁कॉन्फ़िग	-12.7505
कू	-12.7506
प्राथमिक	-12.7507
Delegate	-12.7517
ddress	-12.7522
मुद्	-12.7531
वम्	-12.7538
प्राधिकार	-12.754
rowisofs	-12.7555
▁मीन	-12.7573
ेंगे	-12.7596
सहेजें	-12.7597
▁deci	-12.7606
मैक	-12.761
▁Mos	-12.7615
▁चा	-12.7621
बाल्टिक	-12.7623
ईमेल	-12.7624
वर्ग	-12.7631
▁Jun	-12.7641
खाता	-12.7645
implemented	-12.7646
कले	-12.7659
प्रत्येक	-12.7661
▁decimal	-12.7664
ized	-12.7674
इन्	-12.7678
लै	-12.768
▁gli	-12.768
योजना	-12.7683
nsecu	-12.7688
download	-12.7694
encrypted	-12.7697
co	-12.7716
sion	-12.7719
▁inc	-12.7742
कोर	-12.7743
esynchroniz	-12.7748
CA	-12.7758
arly	-12.7763
▁Unlink	-12.7774
▁सां	-12.7786
▁Graphic	-12.7813
▁समूही	-12.7816
▁she	-12.7821
rtist	-12.7822
▁Inter	-12.783
विवरण	-12.7835
ecurring	-12.7842
ाइम	-12.7842
code	-12.7846
ntu	-12.7847
ग्रीक	-12.7848
िष्	-12.7855
रीटें	-12.7856
grade	-12.7862
100	-12.7867
उज	-12.7876
▁Sor	-12.7886
maximum	-12.789
▁Dest	-12.789
▁os	-12.7892
होम	-12.7896
timezone	-12.7899
Link	-12.7906
wide	-12.7906
▁Decrypti	-12.7915
kl	-12.7919
दिनांक	-12.7931
▁Mana	-12.7937
MA	-12.794
▁एसए	-12.7941
▁Los	-12.7943
▁des	-12.7943
▁impos	-12.7946
Message	-12.7948
▁TTP	-12.7952
▁susp	-12.7965
▁Mal	-12.7966
टिफ	-12.7972
▁rect	-12.7979
ोना	-12.7993
संस्करण	-12.7995
silence	-12.8003
ired	-12.8016
rotocols	-12.8017
पै	-12.8018
आइकन	-12.8019
ectangle	-12.8019
ecognize	-12.802
सदस्यता	-12.8023
▁नॉ	-12.8024
ोड	-12.8026
निरस्त	-12.8028
temp	-12.8032
िकता	-12.8032
विकल्प	-12.8036
मस्क	-12.8044
crashed	-12.8045
वाल	-12.8047
नेक	-12.8054
समयक्षेत्र	-12.8059
बुक	-12.8062
छिपाएँ	-12.8073
Due	-12.8082
प्राप्त	-12.8084
स्टा	-12.8092
व्याख्या	-12.8098
ब्रो	-12.8098
▁accura	-12.8099
ocks	-12.8107
plied	-12.8114
पारम्परिक	-12.812
हल	-12.8124
▁नव	-12.8127
शत	-12.8133
sent	-12.8134
iv	-12.8138
ट्रिगर	-12.8142
▁तर	-12.8144
▁ब्	-12.8145
ाओ	-12.8147
उत्	-12.8154
▁सेके	-12.8156
▁assign	-12.8174
थ्रेड	-12.819
por	-12.8192
llocate	-12.8198
ei	-12.8203
uala	-12.8203
हुल	-12.8207
Linux	-12.8207
620	-12.8213
वधि	-12.822
छोटे	-12.8222
ass	-12.8223
unda	-12.8225
▁कोरियन	-12.8227
▁separately	-12.8229
▁manag	-12.8232
buddy	-12.8236
रिमोट	-12.8241
cs	-12.8241
▁अप्रत्य	-12.8243
serif	-12.8245
move	-12.8251
बढ़ाए	-12.8252
chat	-12.8253
▁Multi	-12.8253
▁माइ	-12.8259
Error	-12.8262
tenti	-12.8263
▁इंडे	-12.8272
▁Dr	-12.8274
ीमा	-12.8275
▁Option	-12.8283
▁integr	-12.829
Purge	-12.8294
▁exceed	-12.8303
द्वारा	-12.8306
मेटाडाटा	-12.8306
si	-12.8312
▁Tri	-12.8312
▁Suggestion	-12.8314
चाहते	-12.832
▁Ad	-12.832
▁नक्श	-12.833
जारी	-12.8333
▁Subscrib	-12.8334
▁मसौद	-12.8335
▁GD	-12.8335
▁Dec	-12.8337
▁Dis	-12.8337
verted	-12.8339
▁पश्चिम	-12.8339
करना	-12.8341
रिया	-12.8342
today	-12.8345
Classic	-12.8346
▁Anjut	-12.8347
▁संसाध	-12.8348
elepathy	-12.8348
solve	-12.8348
▁unregister	-12.8348
ंगठन	-12.835
kb	-12.835
िन्यासः	-12.835
atusbar	-12.8352
▁verifi	-12.8353
इन्टरवैल	-12.8354
▁Describe	-12.8354
▁ESendOptions	-12.8354
▁Wednesday	-12.8354
▁घातक	-12.8354
▁प्रस्तिथि	-12.8354
▁वर्षगाँठ	-12.8354
intellig	-12.8354
major	-12.8354
▁negative	-12.8354
bridge	-12.8354
न्ध	-12.8354
ब्रिज	-12.8354
▁सुश्री	-12.8354
▁स्लाट	-12.8354
▁सोमवार	-12.8354
▁मंगलवार	-12.8354
▁शुक्रवार	-12.8354
▁european	-12.8354
डीएवी	-12.8354
▁02111	-12.8354
▁Friday	-12.8354
▁उद्धृत	-12.8354
▁1307	-12.8354
▁Expunge	-12.8354
▁Composition	-12.8354
▁उन्मुख	-12.8354
▁गुरू	-12.8354
▁परिभ	-12.8355
▁इच्छ	-12.8355
▁जन्म	-12.8355
फिगर	-12.8355
▁Declaration	-12.8355
▁बाँट	-12.8355
▁मैसेजेस	-12.8356
▁Unregistered	-12.8356
▁Delivered	-12.8356
composing	-12.8356
ibly	-12.8357
▁Found	-12.8357
बीसी	-12.8357
▁Kong	-12.8358
▁जुड	-12.8358
ulation	-12.8359
युग	-12.8359
टैब्स	-12.8359
▁निर्मा	-12.8359
▁Authenticating	-12.836
ache	-12.8362
▁श्रेणियांः	-12.8362
▁जापान	-12.8362
सेल्स	-12.8362
हांग	-12.8362
▁Palm	-12.8362
▁तुर्कीश	-12.8363
▁निशान	-12.8364
nished	-12.8365
▁collapsed	-12.8366
▁well	-12.8367
▁सूचनार्थ	-12.8369
वश्यक	-12.837
▁Flat	-12.8371
▁फैक्टरी	-12.8374
jacks	-12.8376
▁इमेल	-12.8379
SSH	-12.8379
भागी	-12.8382
▁cor	-12.8386
▁बनाओ	-12.8387
▁बद	-12.8389
cleaning	-12.8392
▁आइक	-12.8394
▁logged	-12.8395
▁Autogenerate	-12.8395
kbits	-12.8397
▁things	-12.8398
▁Matches	-12.8402
▁उद्धरित	-12.8403
▁परिसीम	-12.8403
▁Fri	-12.8405
▁Tue	-12.8406
▁suggestions	-12.8407
आत्म	-12.8408
ंडरस्	-12.8409
हिना	-12.841
maximize	-12.8411
mmand	-12.8411
▁इनकोडिंग	-12.8414
PM	-12.8414
प्ले	-12.8422
cel	-12.8424
▁blink	-12.8424
Open	-12.8426
ratio	-12.8428
128,	-12.8431
▁composi	-12.8433
▁Cay	-12.8439
▁मेज	-12.8441
▁त्यागे	-12.8442
▁Registered	-12.8442
पोन	-12.8442
western	-12.8446
▁Relat	-12.8447
सहित	-12.8447
प्रतीक	-12.8447
Playlist	-12.8449
▁minor	-12.845
ications	-12.8454
्डरलाइन	-12.8454
रअंदाज	-12.8455
OfThe	-12.8459
पूर्वाह्न	-12.8465
chrome	-12.8466
ीप	-12.8467
akar	-12.8471
eration	-12.8474
▁rever	-12.8477
▁agreement	-12.8479
ithout	-12.8479
ukrainian	-12.8481
ishes	-12.8482
▁dest	-12.8491
कोरियन	-12.8493
via	-12.8495
GPG	-12.8498
separately	-12.8499
अग	-12.8502
▁agree	-12.8503
answered	-12.8503
ेंड	-12.8506
▁जुड़ें	-12.8506
512,	-12.8511
▁प्रच	-12.8513
▁Movi	-12.8517
▁प्रतिविलोप	-12.8517
▁Noir	-12.8517
दार	-12.8519
▁प्राक्सीः	-12.8519
▁ta	-12.8521
ntian	-12.8529
▁orient	-12.8529
tens	-12.8531
Declined	-12.8541
▁आवृत	-12.8546
hang	-12.8548
▁निर्	-12.8555
rke	-12.8562
tt	-12.8567
peak	-12.8572
▁स्पेन	-12.858
▁टू	-12.8585
▁mpleted	-12.8587
IMAP	-12.8592
उलट	-12.8599
▁फोक	-12.8601
ested	-12.8605
ka	-12.8609
▁IC	-12.861
▁डिस	-12.8614
अपन	-12.8615
accura	-12.8618
swor	-12.862
▁साईट	-12.8629
Hide	-12.8629
काली	-12.8632
सार	-12.8647
▁थीः	-12.8649
दुर्घटना	-12.8658
japanese	-12.8659
▁clo	-12.8663
korean	-12.8668
▁स्केन	-12.8672
apo	-12.8672
68	-12.8676
▁एंप	-12.8685
ाब	-12.8687
रेज	-12.869
▁Lists	-12.8691
Whe	-12.8692
▁मार्	-12.8693
NUM	-12.8693
▁viewable	-12.8694
▁interacti	-12.8694
roman	-12.8702
rough	-12.8703
्ला	-12.8705
▁पृष्ठः	-12.8714
shga	-12.8722
पैंग	-12.8724
ाइक	-12.8725
uis	-12.8732
जि	-12.8736
elivery	-12.8743
▁matched	-12.8752
40	-12.8752
कंपोज	-12.8767
▁specifi	-12.8768
ackward	-12.8777
रोका	-12.8784
▁निर्ध	-12.8785
▁collapse	-12.879
▁ok	-12.8796
ानेवाल	-12.8806
ंव	-12.8806
xit	-12.8809
ंडा	-12.881
्यूम	-12.8813
▁Po	-12.8813
▁कला	-12.8815
raft	-12.8833
ink	-12.8833
ngle	-12.8849
End	-12.885
ांतरित	-12.8854
lready	-12.8856
+	-12.8857
ected	-12.8871
▁Upgrad	-12.8871
rawing	-12.8872
▁",	-12.8875
कुत्	-12.8877
▁registra	-12.8877
▁विड	-12.8882
लोग	-12.8882
-20	-12.8883
▁Creat	-12.8886
arac	-12.8891
▁Unde	-12.8894
tc	-12.89
▁Pi	-12.8918
arti	-12.8919
मास्क	-12.8919
▁प्रयोक्ताः	-12.8924
▁db	-12.8926
एडी	-12.8932
▁कनेक्टे	-12.8939
hai	-12.8942
्यार	-12.8945
apol	-12.8964
▁Kin	-12.8971
▁नज	-12.8975
information	-12.8988
स्तर	-12.8989
lk	-12.8989
0,	-12.8991
गी	-12.8996
▁Then	-12.9007
make	-12.9012
थि	-12.9036
https	-12.9041
▁id	-12.9047
▁Sto	-12.9061
uto	-12.9064
▁wil	-12.908
जाल	-12.9085
मिक	-12.9088
rmalization	-12.9089
ाँक	-12.9096
▁Sant	-12.9096
gre	-12.9102
version	-12.9104
निंग	-12.9108
bk	-12.911
ुज	-12.9116
विय	-12.9117
ded	-12.912
कार्यक्षेत्र	-12.9122
rder	-12.9125
तनी	-12.9126
▁--------	-12.9134
बड़ा	-12.9136
eject	-12.9144
ची	-12.9149
बाहर	-12.9152
नक	-12.9153
il	-12.9157
▁optim	-12.9163
▁कह	-12.9164
निजी	-12.9174
▁voi	-12.9174
रु	-12.918
निस्प	-12.9185
▁सामन	-12.9201
ूट	-12.9221
▁ग्र	-12.9226
माह	-12.9236
Save	-12.9241
ogl	-12.9244
yName	-12.9245
ाद	-12.9249
evan	-12.926
vo	-12.9263
▁pm	-12.9265
रतें	-12.9273
▁बी	-12.9283
opy	-12.9293
ेक्शन	-12.9294
tte	-12.9297
ग्	-12.9313
ुल	-12.9321
▁opposit	-12.9327
▁Cho	-12.9335
खोजें	-12.9358
्यू	-12.9368
▁Pictures	-12.9369
▁reli	-12.9377
ेत्र	-12.9379
पासवर्ड	-12.938
▁Organi	-12.9385
tick	-12.939
ining	-12.9397
▁Sen	-12.9424
▁After	-12.9433
▁ago	-12.9434
त्ते	-12.9434
टल	-12.9438
▁समाप्तः	-12.9444
egistrar	-12.945
test	-12.9453
▁Blan	-12.9473
▁प्रयुक्तः	-12.9478
▁आना	-12.9508
सके	-12.9523
ार्ड	-12.9536
फोर्ट	-12.9543
ग्रह	-12.9557
apu	-12.956
बिलि	-12.9562
ach	-12.9564
create	-12.9566
▁लगाए	-12.9585
bin	-12.9589
राम	-12.9599
aken	-12.9607
▁resu	-12.9608
ner	-12.9609
श्त	-12.9611
contact	-12.9611
min	-12.9614
Image	-12.9625
▁Va	-12.9626
▁tho	-12.9635
ोब	-12.9636
di	-12.9637
elete	-12.9642
sy	-12.9655
रेजी	-12.966
ज्ञापन	-12.9687
जात	-12.9692
ब्	-12.9693
Failed	-12.9694
▁Dum	-12.9699
▁ha	-12.9699
एन	-12.97
ल्फ	-12.9707
nce	-12.9713
em	-12.972
Google	-12.973
प्रमाणपत्र	-12.9744
ches	-12.9745
Re	-12.9748
intu	-12.9751
सित	-12.9754
समूह	-12.9755
aces	-12.9757
▁fresh	-12.9775
▁fi	-12.9797
दें	-12.9798
▁फॉल	-12.9802
std	-12.981
▁opy	-12.9811
subscribe	-12.9822
▁MS	-12.9827
celation	-12.9827
Anjuta	-12.983
िफ	-12.983
किट	-12.9848
transmit	-12.9849
oresby	-12.9852
ंटिया	-12.9854
▁क्	-12.9862
possibl	-12.9871
▁ex	-12.9874
त्	-12.9875
▁Samar	-12.9887
▁यही	-12.9894
▁Whiteh	-12.99
na	-12.9902
aren	-12.9903
scen	-12.991
ina	-12.9911
unc	-12.992
ics	-12.9949
संपादन	-12.996
पलेट	-12.9961
ant	-12.9961
हेल	-12.9964
scale	-12.9966
धीर	-12.9971
ywhere	-12.9975
nding	-12.9978
सेव	-12.9983
▁इंप	-12.999
मिन	-13
ended	-13.0001
Move	-13.0003
▁Monday	-13.0028
इड	-13.0037
वर्ण	-13.0045
▁संभ	-13.0054
होन	-13.0057
▁Sat	-13.006
ite	-13.0065
यूड	-13.0075
ain	-13.0082
खोलो	-13.0089
प्रति	-13.0099
▁disabl	-13.0103
ोंः	-13.0109
ind	-13.0114
आध	-13.0117
▁असी	-13.0126
िट्स	-13.0127
password	-13.0131
▁रिप	-13.0132
बॉ	-13.0134
नोर	-13.0135
▁Batch	-13.0139
ali	-13.014
▁Pul	-13.0142
पो	-13.0146
ाएं	-13.0151
▁खा	-13.0159
0.0	-13.016
याकुत	-13.0161
speci	-13.0162
li	-13.0163
esizable	-13.0177
इंच	-13.019
पार्ट	-13.0195
ेंसि	-13.0195
▁टिक	-13.021
ीटी	-13.0211
▁ve	-13.0229
▁Decod	-13.023
presse	-13.0237
एंटि	-13.0239
iled	-13.024
िम	-13.0245
han	-13.0255
▁ड्रा	-13.0268
जनक	-13.0271
▁Respon	-13.0283
र्क	-13.0294
▁reate	-13.0295
run	-13.0297
gu	-13.0299
ere	-13.0313
special	-13.0315
iate	-13.0323
रिव	-13.0335
should	-13.0348
▁अज	-13.035
▁यहा	-13.0356
▁सेंस	-13.0361
ico	-13.0365
▁rea	-13.0373
6.	-13.0373
ताएँ	-13.0373
एसए	-13.0374
पीछे	-13.0389
रीका	-13.04
Personal	-13.04
▁mage	-13.0402
पारदर्शी	-13.0403
sg	-13.0408
▁पंचांगः	-13.0415
tar	-13.0432
▁Lang	-13.0433
▁फे	-13.0435
pply	-13.0438
पूछें	-13.044
ीका	-13.0447
Completed	-13.0455
लॉग	-13.0458
लाक	-13.0459
selection	-13.0467
स्टी	-13.048
je	-13.0488
सब	-13.0489
▁Signo	-13.0498
▁ग्री	-13.0514
ack	-13.0518
ुले	-13.0522
▁qu	-13.0528
न्तरि	-13.0534
भूमि	-13.0537
▁Activat	-13.0537
bl	-13.0538
Back	-13.0547
▁लो	-13.0571
सियन	-13.0572
key	-13.0578
▁दुर	-13.0586
authentication	-13.0587
ganization	-13.0592
iant	-13.0594
दस्ती	-13.0595
Day	-13.06
लीक	-13.0601
earch	-13.0601
गोपित	-13.0601
यस	-13.0609
सिक	-13.0614
▁1252	-13.0615
▁डा	-13.0618
कब	-13.062
▁bet	-13.0621
latin	-13.0628
सहभागी	-13.063
आंकड़ा	-13.0641
वरू	-13.0643
put	-13.0651
ises	-13.0661
जैस	-13.0667
ोटा	-13.0667
गाली	-13.0672
▁pace	-13.0675
▁Assistan	-13.0683
▁ide	-13.0686
योर	-13.0687
▁Declined	-13.0703
▁Stat	-13.0703
▁shar	-13.0704
ाल्ट	-13.0716
▁Trave	-13.0718
▁Programs	-13.073
uppress	-13.075
ब्ल	-13.0765
▁batch	-13.0773
▁nder	-13.0777
▁ensur	-13.0779
▁servic	-13.0785
▁bri	-13.0793
laid	-13.0794
महत्वपूर्ण	-13.08
ssociate	-13.0801
ustomize	-13.0806
lb	-13.081
ause	-13.081
▁मॉड	-13.0812
▁division	-13.0813
ekiga	-13.0814
nvisible	-13.0818
युक्ति	-13.082
▁ऑउट	-13.0826
▁auth	-13.083
MMM	-13.0831
▁अनुकूल	-13.0832
एपी	-13.0835
▁Remind	-13.0836
ूरा	-13.0838
ganizer	-13.0839
23	-13.0839
▁Choos	-13.084
▁Numbe	-13.0842
▁Miss	-13.0843
▁schedul	-13.0843
▁Styl	-13.0844
▁retract	-13.0846
pider	-13.0846
▁इकाइय	-13.0846
▁Detect	-13.0846
▁मजबू	-13.0848
hift	-13.0848
▁accelerat	-13.0849
▁strike	-13.0852
▁unsuccessful	-13.0852
tegories	-13.0852
▁पुनरावृत्त	-13.0852
▁alphabet	-13.0852
londike	-13.0852
▁Suggest	-13.0853
libbonoboui	-13.0854
seudonym	-13.0854
▁3246	-13.0854
▁636	-13.0854
▁FOGRA	-13.0854
▁Postpone	-13.0854
▁criteria	-13.0854
▁yyyy	-13.0854
▁श्वानपुच्छ	-13.0854
▁Yellow	-13.0854
▁आयटम	-13.0854
▁pixbut	-13.0854
▁पुनरावत्ति	-13.0854
आरएल	-13.0854
▁spawn	-13.0854
▁दुहरा	-13.0854
▁Antler	-13.0854
▁एंटलर	-13.0854
▁ग्रुप	-13.0854
कान्फ	-13.0854
▁छद्मनाम	-13.0854
▁ड्राफ्ट	-13.0854
▁AutoComplete	-13.0854
!!!	-13.0854
▁मुखरा	-13.0854
168.	-13.0854
▁Strikeout	-13.0854
2010	-13.0855
▁इटालिक	-13.0855
▁{0:	-13.0855
▁अपंजीकृत	-13.0855
तुर्क	-13.0856
▁Dvd	-13.0856
ब्रू	-13.0856
▁स्वामी	-13.0856
▁उपसमूह	-13.0856
▁Speak	-13.0857
▁192.	-13.0857
लापन	-13.0857
शिष्ट	-13.0858
▁निरसित	-13.0858
▁histor	-13.0858
▁विज्ञ	-13.0858
roduce	-13.0858
जटिल	-13.0859
▁weekday	-13.0859
▁Replied	-13.0859
▁दोनो	-13.086
डेट	-13.086
▁jim	-13.086
कॉल्स	-13.086
▁AKID	-13.086
▁retracted	-13.0862
▁Unsigned	-13.0862
▁Prior	-13.0862
▁सॉ	-13.0863
वोल्यूशन	-13.0863
वेटिक	-13.0864
अनुप्रयोग	-13.0864
▁Percent	-13.0864
ताश	-13.0864
▁दोस्त	-13.0864
member	-13.0864
▁रहेंगे	-13.0864
▁zip	-13.0865
▁unregistered	-13.0865
▁intro	-13.0865
▁Inform	-13.0866
company	-13.0866
▁Thank	-13.0867
ाचार	-13.0868
eply	-13.0868
▁July	-13.0869
बाए	-13.087
entity	-13.0871
▁ऑन	-13.0871
▁पीछ	-13.0872
▁389	-13.0872
▁Priorit	-13.0873
यद	-13.0874
स्लो	-13.0875
▁Bind	-13.0876
नापन	-13.0876
▁async	-13.0877
▁MMM	-13.0877
चाहिए	-13.0877
▁res	-13.0878
inner	-13.0881
▁tri	-13.0881
छोटि	-13.0882
▁netb	-13.0883
▁दौरा	-13.0885
प्रांत	-13.0886
▁लंबव	-13.089
नशील	-13.0893
र्	-13.0894
मेशन	-13.0895
▁authenticating	-13.0896
blic	-13.0896
mmary	-13.0899
versioned	-13.0899
मुखी	-13.0902
ेडर	-13.0904
preferences	-13.0907
लीफ	-13.0908
▁privately	-13.0909
▁रानी	-13.091
ोर्स	-13.0911
turns	-13.0915
roposal	-13.0915
▁association	-13.0916
▁Wee	-13.0917
▁वाई	-13.0917
▁स्थानी	-13.0919
mages	-13.092
▁पठ	-13.092
किल	-13.0925
▁Num	-13.0925
Year	-13.0926
▁Preset	-13.0927
orward	-13.0928
▁Braz	-13.0929
▁न्यू	-13.0929
ialog	-13.0929
caling	-13.093
▁Sal	-13.0938
▁Wall	-13.0938
ीवी	-13.094
ैब	-13.0944
कैसे	-13.0945
पुन	-13.0946
▁Threaded	-13.0947
ubgroups	-13.0962
ेटा	-13.0972
▁saying	-13.0974
▁impo	-13.0974
▁हाला	-13.0984
कमांड	-13.0991
urce	-13.0994
Duration	-13.0997
thread	-13.0997
ou	-13.0998
खाली	-13.0999
▁अप्रत्या	-13.1
▁Li	-13.1002
▁atk	-13.1013
्शन	-13.1015
ग्ले	-13.1016
डिटेक्	-13.1018
Check	-13.1036
▁References	-13.104
▁गो	-13.1041
bytes	-13.1055
oreground	-13.1061
ेटः	-13.1068
▁expander	-13.1076
▁Net	-13.1077
संभव	-13.1079
▁भे	-13.1088
My	-13.1089
arms	-13.1095
Email	-13.1103
▁braces	-13.1103
▁positi	-13.1106
डीब	-13.1107
wanted	-13.1117
पासवर्डः	-13.1118
▁होंग	-13.1122
▁met	-13.1128
▁रखे	-13.1142
xception	-13.1154
ाकृत	-13.1161
▁xpunge	-13.1174
-9	-13.1177
वै	-13.1183
-7	-13.1194
माउस	-13.1198
ortra	-13.1207
lev	-13.1209
बंधित	-13.1221
ore	-13.1225
स्कोप	-13.1226
▁Cong	-13.1227
▁roles	-13.1236
ार्ट	-13.1236
स्मारक	-13.1244
▁vc	-13.125
detector	-13.1254
ियोज	-13.1259
ंगल	-13.1261
Important	-13.1264
Month	-13.127
▁lo	-13.1275
bol	-13.1277
▁note	-13.1279
▁Sup	-13.1285
opula	-13.1288
ogtail	-13.1288
haring	-13.1291
डि	-13.1302
ज्	-13.1308
trusted	-13.1315
nly	-13.1316
व्यू	-13.1316
And	-13.1317
केज	-13.1322
irs	-13.1322
लग्रिंड	-13.1324
रूपः	-13.1326
रिम	-13.1327
िवार	-13.1328
Sender	-13.1328
limit	-13.1329
विवरणः	-13.133
ewritable	-13.1333
लः	-13.1336
document	-13.1338
▁Ide	-13.1347
ary	-13.1348
▁Chi	-13.1354
Updated	-13.1357
Counter	-13.1364
आर्क	-13.1365
अपारदर्शी	-13.1369
▁ook	-13.137
पॉ	-13.1373
ट्रक	-13.1376
▁Hav	-13.1377
ublished	-13.1382
authoriz	-13.1383
्हा	-13.1392
registered	-13.1396
2,	-13.1399
▁al	-13.14
hair	-13.1403
हैः	-13.1404
प्रस्ताव	-13.1409
ग्रूप	-13.1412
▁ph	-13.1413
info	-13.1432
HB	-13.1438
sible	-13.1439
दृश्य	-13.1442
रै	-13.1446
्रांस	-13.145
▁hot	-13.1453
ाउंड	-13.1455
Accepted	-13.1458
ort	-13.1461
tele	-13.1463
ev	-13.1473
▁Da	-13.1474
ँच	-13.1484
signed	-13.1498
▁प्	-13.1504
zy	-13.151
stry	-13.1512
▁प्ल	-13.1517
leon	-13.153
जोडे	-13.1541
optional	-13.1542
Zone	-13.1544
मानचित्र	-13.1551
rte	-13.1554
▁रू	-13.1557
et	-13.1561
spam	-13.1562
ज़ि	-13.1575
भू	-13.1579
▁macro	-13.1581
तारीख	-13.1583
▁months	-13.1584
Suite	-13.1587
डोर	-13.1587
fill	-13.1592
बिट	-13.1598
▁Tu	-13.1602
ncognito	-13.1604
osi	-13.1607
▁dec	-13.1612
▁va	-13.1613
event	-13.1614
सेंटर	-13.1614
igu	-13.1628
ल्टा	-13.1629
बात	-13.163
्ने	-13.1635
Do	-13.1641
mode	-13.1642
महीना	-13.1645
जाने	-13.1648
्वित	-13.1657
synchroniz	-13.1659
llowing	-13.1662
मेरी	-13.1662
bitra	-13.1664
ल्प	-13.1664
rba	-13.1677
प्लगइन	-13.1678
Delegated	-13.168
pick	-13.1683
Tentatively	-13.1688
▁Popu	-13.169
िस्ट	-13.1691
▁Roles	-13.1692
▁hops	-13.1696
▁scripts	-13.1701
▁none	-13.1706
Minute	-13.1706
uture	-13.1708
Hour	-13.1718
▁Bl	-13.1718
▁जानकारीः	-13.172
नब	-13.1731
Unlink	-13.1732
imin	-13.1743
प्रोक	-13.1746
Monday	-13.1754
itions	-13.1755
ीओ	-13.1761
hav	-13.1768
सकी	-13.1783
▁interna	-13.1789
इस्ट	-13.1792
ीस	-13.1799
कौ	-13.1803
जेन	-13.1808
मैन	-13.1819
ported	-13.1833
atively	-13.1851
ug	-13.1852
▁छोड़न	-13.1854
्की	-13.1857
जानकारी	-13.1858
ारित	-13.1859
aw	-13.1883
osting	-13.1886
▁नामक	-13.1895
▁Signatures	-13.1897
▁जल	-13.1926
▁फ़ॉर	-13.1929
ड़ो	-13.1932
वाक	-13.1934
real	-13.1941
▁Ur	-13.1943
▁मेर	-13.1944
▁UN	-13.1945
पहले	-13.1946
बिल्ड	-13.1946
कारक	-13.195
▁संचाल	-13.1953
सौद	-13.1964
2833")	-13.1967
समर्थित	-13.1974
▁gnature	-13.198
यतन	-13.198
▁दिखायेंः	-13.1981
▁San	-13.1982
rapped	-13.199
▁Conferenc	-13.1993
▁submit	-13.1993
ेगी	-13.2011
मारे	-13.2014
▁tentative	-13.2016
▁lt	-13.2023
▁Os	-13.2028
License	-13.2031
rote	-13.2034
▁cond	-13.2035
टामि	-13.204
▁Mes	-13.2042
▁Grow	-13.2049
ायज	-13.2058
▁आधारः	-13.2066
जवाब	-13.2066
इज़	-13.2075
▁cli	-13.2077
cy	-13.2078
▁थ्र	-13.2079
▁कमर	-13.2091
▁gin	-13.2097
दिखा	-13.2105
▁devices	-13.2127
Copy	-13.213
ुने	-13.2132
▁मेलब	-13.2134
खोल	-13.2139
▁पृष्	-13.2151
गुप	-13.2155
▁संदेशो	-13.2157
▁attac	-13.2157
DI	-13.2163
fault	-13.2167
▁कोर	-13.2167
lang	-13.2173
lon	-13.2183
▁इंटर	-13.2183
काटे	-13.2194
ब्रा	-13.2197
ft	-13.2198
arge	-13.2198
▁opti	-13.2199
umb	-13.2203
ision	-13.2206
िड़	-13.2226
▁सीए	-13.2238
ood	-13.2245
llows	-13.2252
failed	-13.2257
xport	-13.228
न्ह	-13.2285
लों	-13.2285
तल	-13.2287
▁Vie	-13.2291
▁Mus	-13.2292
प्रोग्राम	-13.2293
ances	-13.2302
DA	-13.2303
rep	-13.2304
abor	-13.2317
लेन	-13.2317
टाना	-13.2321
हण	-13.233
mport	-13.2331
▁painte	-13.2331
dif	-13.2344
ड्र	-13.2345
▁pe	-13.2358
▁ontact	-13.2375
▁Shutt	-13.2402
सिं	-13.2406
▁प्रारंभः	-13.2414
utoconf	-13.2432
▁Addr	-13.2435
वश	-13.2437
▁कू	-13.244
ेंज	-13.2449
ef	-13.2449
▁inva	-13.2453
lling	-13.2455
▁Cra	-13.2457
tem	-13.2466
यनी	-13.2466
रिस	-13.247
▁rel	-13.2473
bility	-13.2474
ांके	-13.2474
केना	-13.2513
हते	-13.2521
ाइस	-13.2529
▁जबर	-13.253
alle	-13.253
मिटाएँ	-13.253
इसी	-13.2542
apor	-13.2542
ues	-13.2545
could	-13.2558
▁col	-13.2584
▁Pri	-13.2589
▁Dak	-13.2592
क्री	-13.2592
▁lea	-13.2598
pag	-13.2602
▁pref	-13.2603
cell	-13.2619
urning	-13.2626
writing	-13.2628
▁विध	-13.2636
▁Kam	-13.2642
ecommended	-13.2653
▁Got	-13.2655
संकेत	-13.2664
aining	-13.2671
प्रॉक्सी	-13.2674
count	-13.2676
र्षों	-13.2692
पर्	-13.2694
रखें	-13.2695
▁dire	-13.2705
chan	-13.2715
▁Classif	-13.2719
▁sur	-13.272
माल	-13.2727
▁thin	-13.2732
स्पूल	-13.2734
onal	-13.2734
tify	-13.2744
नुरूप	-13.2749
)'	-13.2752
▁greek	-13.2766
ार्	-13.2783
दस्तावेज	-13.2784
nyway	-13.2795
nteger	-13.2796
प्र	-13.2802
process	-13.2812
▁turkish	-13.2813
gon	-13.2813
त्रि	-13.2813
▁guide	-13.2823
▁licenses	-13.2825
Chinese	-13.2829
▁ट्	-13.284
known	-13.2843
सकाः	-13.2858
▁continu	-13.286
bug	-13.2867
नीज	-13.2873
पेन	-13.2882
फ़ॉन्ट	-13.2891
▁पुनर	-13.2893
▁अपे	-13.2895
न्यास	-13.2911
▁नकार	-13.2924
completed	-13.2927
vert	-13.2941
▁advance	-13.2945
click	-13.2952
ek	-13.2952
बां	-13.2956
▁मिटाय	-13.2977
्र	-13.298
▁चो	-13.2987
▁Mak	-13.299
CI	-13.2992
rows	-13.2997
▁He	-13.2999
important	-13.3014
xisting	-13.3017
▁Mau	-13.3029
top	-13.3042
िकी	-13.3055
कांग	-13.306
ives	-13.3062
कॉल	-13.3073
▁जात	-13.3076
anel	-13.3078
ुन	-13.3078
reek	-13.3084
लावा	-13.3089
urposes	-13.3089
राह	-13.3098
▁बैके	-13.3101
accounts	-13.3112
▁Au	-13.3113
एन्क	-13.3117
please	-13.3129
अल्	-13.3132
don	-13.3139
pages	-13.3151
▁VI	-13.3152
▁Subfolder	-13.318
कंपा	-13.3184
बने	-13.3196
nj	-13.3203
घटान	-13.3213
▁नियमा	-13.3255
ायन	-13.3265
▁roman	-13.3271
▁unsa	-13.3278
कचरा	-13.3297
दिखान	-13.3304
pending	-13.3317
ites	-13.3339
enter	-13.336
ुजु	-13.3361
Tr	-13.3378
▁अनुसूच	-13.3416
itle	-13.342
ervi	-13.3423
call	-13.3423
entered	-13.3425
rase	-13.3427
ora	-13.343
rai	-13.3438
जिल	-13.3438
▁Intern	-13.3443
टू	-13.3446
▁गुप	-13.3446
▁दबाय	-13.3456
84	-13.3472
ोने	-13.3472
ीकार्ड	-13.3475
ane	-13.3479
▁signatures	-13.3485
वाड	-13.3486
ji	-13.3488
ात	-13.3489
connecting	-13.3489
tu	-13.3491
▁Frequen	-13.3491
निको	-13.3531
अवधि	-13.3535
▁identifi	-13.3564
▁दर्शा	-13.3575
ीव	-13.3585
ade	-13.3587
sive	-13.3587
▁Sk	-13.36
लीस	-13.3601
▁बै	-13.3605
▁Johns	-13.3609
▁sn	-13.3611
rope	-13.3613
Note	-13.3617
xclude	-13.3618
Log	-13.3623
▁Nam	-13.3636
directories	-13.364
वार्	-13.3641
▁differ	-13.3646
xture	-13.365
▁emails	-13.3661
ोर्ड	-13.3666
ale	-13.3667
support	-13.3688
▁Maca	-13.3691
redicti	-13.3692
लेख	-13.3695
▁uni	-13.3705
classifi	-13.3709
▁रोका	-13.373
सिबि	-13.3748
अनुमति	-13.3751
पिछल	-13.3751
ility	-13.3756
रणी	-13.3764
pple	-13.3767
ama	-13.3767
handl	-13.3768
▁exp	-13.3776
▁Acc	-13.3784
ague	-13.379
िख	-13.3792
mon	-13.3792
प्रा	-13.3795
ावा	-13.3796
cv	-13.3796
▁Lea	-13.38
ongy	-13.3809
▁plu	-13.3814
पसंद	-13.3826
ाएगा	-13.3832
ptions	-13.3836
▁ता	-13.3843
elected	-13.3863
पित	-13.3865
bili	-13.3874
टाई	-13.3877
nom	-13.388
मिया	-13.3882
gl	-13.3884
shke	-13.3886
काम	-13.3887
▁Bang	-13.389
ername	-13.3894
र्व	-13.3896
ontainer	-13.3906
केले	-13.3912
▁cu	-13.3913
ager	-13.3917
ish	-13.3919
ोबा	-13.3919
oba	-13.3921
Create	-13.3922
मार्क	-13.3922
शेड	-13.3932
ोटे	-13.3934
लंबवत	-13.3936
्नी	-13.394
▁rela	-13.3958
quare	-13.3971
vis	-13.3971
{1}	-13.3976
▁लां	-13.3983
ped	-13.3985
tatus	-13.3988
connect	-13.4003
डेशन	-13.4005
▁मक	-13.4008
ordina	-13.4009
मेन	-13.4009
izing	-13.401
बाउं	-13.4017
समर्थन	-13.4018
bject	-13.4018
inside	-13.4019
ाइफ	-13.402
tandard	-13.4027
र्टो	-13.4034
▁सबक	-13.4037
enh	-13.4038
▁Mr	-13.4039
actor	-13.4039
but	-13.4042
र्ण	-13.4043
क्रि	-13.4045
▁expir	-13.4045
mize	-13.4066
बनाएँ	-13.4068
डन	-13.4068
▁अल	-13.4085
▁Deli	-13.4085
लेड	-13.4088
▁कहत	-13.409
र्डिंग	-13.409
▁euro	-13.4091
urrent	-13.4092
kip	-13.4094
vailable	-13.41
▁असम	-13.4102
मला	-13.4104
turn	-13.4108
टिम	-13.4113
lignment	-13.4118
pied	-13.4118
मोंट	-13.4119
प्रिं	-13.412
Item	-13.4123
फाईल	-13.4123
ttach	-13.4123
status	-13.4126
▁quotation	-13.4138
स्टन	-13.4139
lem	-13.4143
थः	-13.4144
बिंब	-13.4145
सम्म	-13.4146
▁Alway	-13.4147
▁घंट	-13.4148
शान्	-13.415
ैरो	-13.4152
राने	-13.4152
यार्	-13.4155
olumn	-13.4157
िशु	-13.4157
ौद	-13.4159
निश	-13.4159
▁ढ़	-13.416
▁clu	-13.4162
लिवर	-13.4166
ercent	-13.4169
सैल	-13.4171
मांड	-13.4172
▁शैल	-13.4173
▁श्रेणियां	-13.4173
टोमे	-13.4174
कुचि	-13.4175
▁Quote	-13.4176
▁Recipien	-13.4176
▁Cata	-13.4176
▁".	-13.4178
▁Georgia	-13.4179
▁occu	-13.418
्राय	-13.418
मर्थित	-13.4181
▁meet	-13.4181
धिष्ठाप	-13.4182
▁सिकोड़े	-13.4182
▁शर्त	-13.4182
अस्	-13.4183
विंड	-13.4184
▁Custo	-13.4184
्रास	-13.4184
earby	-13.4184
▁Follo	-13.4185
ndar	-13.4185
▁Calcu	-13.4186
▁messa	-13.4186
▁immediate	-13.4186
▁रोमानिय	-13.4187
▁decli	-13.4187
▁Inherit	-13.4187
36845,125.862501	-13.4187
2.2.8)	-13.4187
436845,	-13.4187
862501	-13.4187
aribo	-13.4187
टर्कीश	-13.4187
पीजीपी	-13.4187
▁August	-13.4187
▁February	-13.4187
▁Forbidden	-13.4187
▁JWZ	-13.4187
▁October	-13.4187
▁Proprietary	-13.4187
▁September	-13.4187
▁russian	-13.4187
▁अक्टूबर	-13.4187
▁अप्रैल	-13.4187
▁कैरिबू	-13.4187
▁परंपरागत	-13.4187
▁परिमाण	-13.4187
▁सिंक्रोनाइज़	-13.4187
▁पद्धति	-13.4187
▁मालिक्यूल	-13.4187
▁रेफकाउन्ट	-13.4187
▁प्रीव्यू	-13.4187
▁April	-13.4187
▁November	-13.4187
र्टकट	-13.4187
▁अटेचमेंट	-13.4187
▁Turk	-13.4187
▁स्ट्	-13.4187
▁adium	-13.4187
ुष	-13.4187
▁मार्जिन	-13.4187
▁Beagle	-13.4187
ूंढ़	-13.4188
▁Branc	-13.4188
▁टेम्प	-13.4188
ActionFormat	-13.4188
▁जुलाई	-13.4188
▁Express	-13.4188
▁सम्बन्ध	-13.4188
▁छेत्र	-13.4188
▁Rescan	-13.4188
▁दस्ताव	-13.4188
▁exchange	-13.4188
निवे	-13.4189
▁मार्च	-13.4189
▁एआईएम	-13.4189
मैक्	-13.4189
▁लेवल	-13.4189
▁Slides	-13.4189
रिबो	-13.4189
ब्ल्	-13.419
▁यूआ	-13.419
▁Hangup	-13.419
▁जून	-13.4192
हार्	-13.4192
रोसा	-13.4192
▁Draftbox	-13.4193
▁दश्य	-13.4193
robi	-13.4193
▁Sentbox	-13.4193
टेग	-13.4193
ज्ञात	-13.4194
▁बक्स	-13.4194
न्ग	-13.4194
▁Person	-13.4194
ember	-13.4194
▁टर्क	-13.4194
▁प्रतिदिन	-13.4195
स्यो	-13.4195
▁postponed	-13.4195
erbur	-13.4196
mera	-13.4196
ॉप	-13.4196
alpa	-13.4197
▁अनुमतियां	-13.4197
डवे	-13.4197
natures	-13.4197
मिन्	-13.4197
रवरी	-13.4197
▁Anonymously	-13.4198
▁उठा	-13.4198
▁गाइड	-13.4199
oul	-13.4199
ntication	-13.42
लिस्	-13.42
▁Notifi	-13.4201
्नो	-13.4201
्गो	-13.4201
ipan	-13.4202
हरान	-13.4203
प्यू	-13.4204
▁विसंपीड़	-13.4204
यरब	-13.4204
gue	-13.4205
ncou	-13.4205
टोक	-13.4205
▁Rome	-13.4206
▁validity	-13.4206
रोब	-13.4206
qi	-13.4207
समस	-13.4208
सिको	-13.4209
▁fa	-13.4209
बेन	-13.4209
आईएम	-13.4209
▁simpl	-13.4213
▁प्रस्थ	-13.4214
▁जाएँग	-13.4214
लोप	-13.4215
▁अगस्त	-13.4215
lan	-13.4215
................	-13.4215
द्य	-13.4216
▁Expire	-13.4217
▁Assigne	-13.4218
तिस्	-13.4218
▁weight	-13.4218
▁Authe	-13.4219
ncoding	-13.4221
डेन	-13.4221
डकार	-13.4222
▁Anti	-13.4223
डब्ल	-13.4223
गइ	-13.4224
ppointments	-13.4225
ंगू	-13.4226
धर	-13.4228
▁Weekly	-13.4228
ुटा	-13.4229
ाका	-13.4229
▁Lay	-13.423
sterda	-13.4231
ashi	-13.4231
शिका	-13.4233
ncel	-13.4233
तिज	-13.4234
स्वर	-13.4235
▁Bogo	-13.4235
jav	-13.4235
oug	-13.4236
ड़े	-13.4237
▁Gene	-13.4238
बैं	-13.4238
▁व्य	-13.4239
urne	-13.424
pace	-13.424
इका	-13.4241
uti	-13.4241
रूस	-13.4241
▁सकोर	-13.4242
▁अवर्गीकृत	-13.4242
ड्यू	-13.4243
▁एडिट	-13.4246
hol	-13.4246
author	-13.4246
oupe	-13.4246
ताब	-13.4247
estore	-13.4248
एश	-13.4252
▁suppl	-13.4252
vad	-13.4253
▁Wind	-13.4253
▁पाए	-13.4253
▁सिकुड	-13.4253
बिन	-13.4253
वेस	-13.4255
ila	-13.4255
▁Arg	-13.4256
ormal	-13.4256
▁exam	-13.4258
ankin	-13.4262
ostal	-13.4262
▁गहर	-13.4263
sage	-13.4263
ibou	-13.4264
ापेक्ष	-13.4265
ाकस	-13.4267
▁Normalize	-13.4268
चट	-13.4271
मय	-13.4272
▁March	-13.4274
▁Prev	-13.4276
्पा	-13.4282
▁uri	-13.4282
lder	-13.4283
usa	-13.4284
्रह	-13.4285
ossibly	-13.4286
▁genera	-13.4287
cia	-13.4289
कुव	-13.429
ल्टर	-13.429
▁Stan	-13.4291
ूबा	-13.4295
होक	-13.4296
रंभिक	-13.43
grep	-13.43
▁व्याप	-13.4308
▁Pho	-13.4312
कमतर	-13.4313
ena	-13.4313
olu	-13.4317
▁रिका	-13.4319
▁Tun	-13.4325
टीम	-13.4325
ारं	-13.4326
tta	-13.4329
mas	-13.4333
uta	-13.4333
ynchronization	-13.4334
▁Howe	-13.4337
डालो	-13.4339
▁Rou	-13.434
sf	-13.4341
cting	-13.4341
अक्	-13.4341
शनल	-13.4344
awson	-13.4346
▁Sim	-13.435
गैर	-13.4351
ोस्तो	-13.4352
nip	-13.4354
▁Pang	-13.4355
uro	-13.4357
ecessary	-13.4358
MDN	-13.4361
mont	-13.4362
▁Sear	-13.4362
▁Fun	-13.4365
leted	-13.4373
mman	-13.4377
ilename	-13.4393
मार	-13.4395
अरा	-13.4399
ota	-13.44
हेग	-13.44
▁synced	-13.4403
▁सैले	-13.4405
online	-13.4409
ngui	-13.4411
डिर	-13.4412
verwrite	-13.4413
र्ज	-13.4415
जां	-13.4421
्जा	-13.4424
▁निर्दिष्	-13.4432
▁Ou	-13.4435
ario	-13.4436
load	-13.4437
पनाम	-13.4443
सीय	-13.4443
ntacts	-13.4443
nder	-13.4443
आग	-13.4444
▁Confirmation	-13.4445
terin	-13.4445
समर	-13.4446
क्सम	-13.445
▁Sof	-13.4451
▁दिनांकः	-13.4455
▁Pau	-13.4458
▁Cale	-13.4462
noy	-13.4467
किं	-13.4471
इर	-13.4474
lbo	-13.4479
्वा	-13.449
कीव	-13.4492
▁spelle	-13.4495
एंग	-13.45
दां	-13.4511
▁ओप	-13.4512
▁Subscribed	-13.4515
▁Interacti	-13.4519
attaching	-13.4526
ैत	-13.4527
श्व	-13.4529
रेनी	-13.453
▁संचा	-13.453
मेट	-13.4531
▁Ref	-13.4534
लास	-13.4536
▁मार्क	-13.454
receive	-13.454
ंघ	-13.4541
▁inclu	-13.4547
efinition	-13.4561
General	-13.4567
▁textu	-13.4569
stom	-13.457
orda	-13.4578
याप	-13.4578
▁Ara	-13.4582
ईडी	-13.4585
resence	-13.4592
एंड	-13.4592
cat	-13.4594
plat	-13.4616
आब	-13.4616
ाँ	-13.4617
▁सप्	-13.462
▁Than	-13.4624
्रन	-13.4627
ems	-13.4629
Cursor	-13.4629
▁संच	-13.4634
pted	-13.4635
sibi	-13.4635
क्रियात्मक	-13.4636
allin	-13.4638
rad	-13.464
▁unh	-13.464
▁happens	-13.4646
ापे	-13.4647
▁Mid	-13.4656
alif	-13.4661
▁Pid	-13.4667
ype	-13.4667
▁John	-13.4671
कालि	-13.4673
▁maps	-13.4673
निस	-13.4679
illa	-13.4682
XMP	-13.4682
▁एक्सप्रे	-13.4682
With	-13.4689
▁Tas	-13.4692
ontD	-13.4697
ires	-13.47
▁gree	-13.4703
dela	-13.4713
▁Lis	-13.4722
option	-13.4728
▁Domin	-13.473
्यून	-13.4734
ira	-13.4734
तनाम	-13.4734
डेव	-13.4739
▁ब्र	-13.4741
ques	-13.4749
slo	-13.4751
पुनःप्राप्त	-13.4752
ारंभ	-13.4759
कोस	-13.4767
यल	-13.4774
yl	-13.4777
5:	-13.4784
बाई	-13.4785
▁Canc	-13.4789
लिटेयर	-13.4797
yz	-13.481
losing	-13.481
rat	-13.4816
▁searches	-13.4819
▁Us	-13.4821
ियम	-13.4832
मस	-13.4841
▁RP	-13.4843
rune	-13.4844
डायर	-13.4848
ximum	-13.4852
▁Nau	-13.4856
र्न	-13.4867
▁Shar	-13.4882
ni	-13.4884
urg	-13.4884
▁Lin	-13.489
mand	-13.4892
▁rotat	-13.4894
5,	-13.4894
lace	-13.4897
▁रिव	-13.4899
जाएगा	-13.4899
ndividual	-13.4912
रीन	-13.4914
Refresh	-13.4916
▁पहचाने	-13.492
eka	-13.4921
ect	-13.4923
▁Reci	-13.4941
minica	-13.4942
kn	-13.4952
▁Mad	-13.4957
▁ढूंढे	-13.4964
ndon	-13.497
▁Whi	-13.4981
▁दिखे	-13.4983
tage	-13.4986
awa	-13.4993
▁OpenPGP	-13.5
जाव	-13.5
nda	-13.5
वेश	-13.5004
दस्तावेज़	-13.5008
▁Cam	-13.5014
ावल	-13.5017
iga	-13.5033
body	-13.5035
जंक	-13.5037
▁Du	-13.5038
Indentation	-13.504
कता	-13.5044
दोनों	-13.5048
▁Wed	-13.5049
If	-13.5056
धृत	-13.5058
शब्द	-13.5059
प्रदर्शन	-13.5069
▁Spa	-13.5077
यना	-13.5078
▁yes	-13.508
▁restor	-13.5089
delete	-13.5102
▁inv	-13.5109
प्रोजेक्ट	-13.5114
▁Per	-13.5115
gor	-13.5119
▁Mala	-13.5122
▁"),	-13.5127
rab	-13.514
▁quest	-13.515
▁Ef	-13.5161
▁उच्चत	-13.5162
ैगो	-13.5169
लाम	-13.5171
ipi	-13.5181
bat	-13.5189
spaces	-13.5201
फू	-13.5204
फेट	-13.5214
डक	-13.5215
▁acco	-13.5218
▁Tar	-13.5219
lent	-13.5224
Area	-13.5232
ras	-13.5236
ट्स	-13.5236
▁selector	-13.5242
lations	-13.5249
▁बु	-13.5249
मेरि	-13.5251
▁Bud	-13.5257
राजे	-13.526
ीसेल	-13.527
rite	-13.5271
▁ध	-13.5275
ाथम	-13.5276
▁cleare	-13.5288
गुण	-13.5305
ys	-13.5336
▁activat	-13.5338
af	-13.5346
rding	-13.5349
nver	-13.5353
iev	-13.5358
▁crypt	-13.5362
रियन	-13.5364
िश्	-13.5379
वेल	-13.5379
▁प्रोट	-13.538
rowse	-13.5389
raje	-13.5398
▁elect	-13.5399
write	-13.5417
निर्गमक	-13.5421
ध्वनि	-13.5425
lau	-13.5427
rac	-13.5431
ंगे	-13.5433
tially	-13.5438
र्जिया	-13.5445
▁80	-13.5445
फार	-13.5446
ome	-13.545
▁Shown	-13.545
abul	-13.5466
▁Tim	-13.5475
सहेज	-13.5485
फु	-13.5485
tribution	-13.5494
ुद्ध	-13.551
edited	-13.5513
राट	-13.5524
ाइलें	-13.5535
therwise	-13.5537
Un	-13.5545
िद	-13.5548
▁जुड़त	-13.5552
ns	-13.5557
illiseconds	-13.5565
▁संभा	-13.5567
▁Ph	-13.5572
▁द्	-13.5579
something	-13.5582
▁कुर	-13.5593
oti	-13.56
▁visi	-13.5602
eath	-13.5614
पाएँ	-13.5616
omin	-13.5617
▁Men	-13.564
cancelled	-13.5649
रीस	-13.5651
पत	-13.5657
पुट	-13.5658
▁अलाव	-13.5663
add	-13.5667
▁quote	-13.5668
▁Bi	-13.5671
natural	-13.5673
▁Bru	-13.5681
available	-13.5689
ctual	-13.5693
▁Calling	-13.5695
▁cl	-13.5701
स्पत	-13.5703
बेर	-13.5724
▁सक	-13.5728
atching	-13.5736
▁Hu	-13.5737
Ends	-13.574
निप	-13.5747
rovi	-13.5759
folders	-13.5767
was	-13.5768
दों	-13.5769
rate	-13.5776
obe	-13.5787
समा	-13.5792
Report	-13.5804
▁पंक्तिय	-13.5808
tacts	-13.5808
ीज़	-13.5811
▁Kh	-13.5818
teger	-13.582
bad	-13.5821
▁पैके	-13.5831
8859	-13.5843
changes	-13.5844
slav	-13.5847
authenticate	-13.5854
subject	-13.5857
्री	-13.5863
▁Nou	-13.5867
two	-13.5867
ल्म	-13.5867
होव	-13.5868
ching	-13.5877
▁Even	-13.5879
ompletion	-13.588
ply	-13.5887
Static	-13.5888
▁Wrappe	-13.5896
कंपोजर	-13.59
zo	-13.5907
आउटलुक	-13.591
ks	-13.5912
ged	-13.5916
सत्यापन	-13.5936
ूत	-13.5939
iproc	-13.5947
ानों	-13.5953
PP	-13.5953
eos	-13.5972
ल्	-13.5984
show	-13.5985
लान	-13.5992
▁प्री	-13.5999
mak	-13.5999
fication	-13.6006
ैंट	-13.6009
सकते	-13.601
Sign	-13.6014
▁घटनाए	-13.602
▁खत	-13.602
tus	-13.6031
▁Mix	-13.6035
हस्ताक्षर	-13.604
▁express	-13.604
्न	-13.6042
Cal	-13.6048
eme	-13.605
33	-13.6052
गेट	-13.6053
पोर	-13.6087
▁Dan	-13.6088
▁dis	-13.6096
ढूंढें	-13.6098
lates	-13.6125
io	-13.6126
Incre	-13.6132
eight	-13.6137
wrap	-13.614
फिक्स	-13.6146
olders	-13.6155
lgrind	-13.6168
Decr	-13.6182
py	-13.6185
45	-13.6185
prefer	-13.6188
फ़ाइलें	-13.6196
part	-13.6202
पंद	-13.6212
arr	-13.6212
ेबिल	-13.6212
mu	-13.6216
oolbar	-13.6251
्रीक	-13.6252
्यात	-13.626
home	-13.6265
सिय	-13.6267
▁containe	-13.627
▁ne	-13.6278
इसके	-13.6278
Caret	-13.6283
curring	-13.629
एपि	-13.6296
Tip	-13.6299
बोर्	-13.63
▁Compos	-13.63
्रैड	-13.6316
▁suc	-13.6329
alidity	-13.6336
▁Ra	-13.6336
lot	-13.6341
विराम	-13.6345
ewsgroups	-13.6364
Disable	-13.637
परिवर्तन	-13.6377
▁फु	-13.6391
rules	-13.6413
activation	-13.6419
्योर	-13.6424
▁Scores	-13.6426
बड़े	-13.6428
keyring	-13.645
ldap	-13.645
rist	-13.6452
सहेजे	-13.6459
ul	-13.6465
201	-13.6472
निम	-13.6483
ansa	-13.6495
ढूंढो	-13.6497
▁एंट	-13.65
▁Outbo	-13.6503
cue	-13.6503
▁gra	-13.6504
Attached	-13.6506
निर्दिष्ट	-13.6516
बचाएँ	-13.6517
टैल	-13.6521
ाडो	-13.6524
बांये	-13.6532
▁टेल	-13.6535
▁अग्	-13.6541
ola	-13.6543
बचाओ	-13.6555
▁Vien	-13.6569
shk	-13.6572
After	-13.6592
FF	-13.6594
विसम	-13.6598
▁Hon	-13.6611
copy	-13.6616
▁GP	-13.6621
▁decr	-13.6641
▁Swi	-13.6655
▁बल	-13.6656
▁जह	-13.666
डीव	-13.6663
Organi	-13.6669
Rio	-13.6697
▁estimat	-13.6702
ogle	-13.6702
▁उर्	-13.672
प्लगिन	-13.6721
licenses	-13.6729
ready	-13.673
विफल	-13.6741
assoc	-13.6744
▁ते	-13.6745
nderscore	-13.6749
Public	-13.6751
com	-13.6768
express	-13.6771
तस्वीर	-13.678
ोन्	-13.6781
कुत्स	-13.6787
▁विव	-13.6788
save	-13.6802
सेन	-13.6804
ell	-13.6819
▁tick	-13.682
माइ	-13.6823
निपे	-13.6834
रना	-13.6838
Mov	-13.6874
erif	-13.6885
Th	-13.6888
▁App	-13.6899
▁possibl	-13.6901
Even	-13.6902
टूलबा	-13.6905
डेड	-13.6918
ट्रा	-13.6928
gen	-13.694
#	-13.6945
atis	-13.6948
def	-13.6961
fth	-13.6964
ott	-13.698
सान	-13.6984
ason	-13.6994
▁Automati	-13.7018
lay	-13.7018
डे	-13.7026
vd	-13.703
autodetector	-13.7039
adcd	-13.7063
owever	-13.7073
िटर	-13.709
▁til	-13.7093
्द	-13.7096
uba	-13.7097
हेज	-13.7106
lies	-13.711
lici	-13.7115
ges	-13.7127
▁प्रय	-13.7128
disco	-13.7132
construct	-13.7134
olor	-13.7135
xed	-13.7144
▁Cha	-13.7149
मसे	-13.7159
द्	-13.7164
Contact	-13.7171
hanne	-13.719
Contacts	-13.7206
0}	-13.722
ompt	-13.7236
ाणी	-13.7244
▁मेटाड	-13.726
cos	-13.7263
xpens	-13.7266
▁Distan	-13.7271
ब्रैसेरो	-13.7277
ाए	-13.728
▁प्रोफा	-13.7291
सीए	-13.7292
roperties	-13.7298
▁Names	-13.7305
diamonds	-13.731
res	-13.7311
inting	-13.7311
▁fl	-13.7337
रने	-13.7343
िता	-13.7356
▁विस्	-13.7358
onto	-13.7372
Al	-13.7412
hra	-13.7416
▁Jo	-13.7417
कोल	-13.7421
▁निम्नत	-13.7431
rit	-13.7438
स्वीकारें	-13.7439
offline	-13.7451
led	-13.7459
▁brows	-13.7462
Blan	-13.7462
4:	-13.7467
ipe	-13.7475
▁प्रोक	-13.7477
दिया	-13.7482
▁Starts	-13.7483
शों	-13.7491
next	-13.7499
चालित	-13.7504
ाता	-13.7508
ुद	-13.7508
Font	-13.7509
▁सर	-13.751
शीर्ष	-13.7512
रद्दी	-13.7531
ड़	-13.7546
▁ppointment	-13.7562
scus	-13.7587
ward	-13.7591
▁Alg	-13.7593
Mu	-13.7603
images	-13.7607
found	-13.7624
असफल	-13.7635
र्श	-13.7635
gad	-13.7642
olic	-13.7643
Color	-13.7654
प्रयोगः	-13.7665
wh	-13.7672
स्या	-13.7686
▁पंजीक	-13.7695
▁Animat	-13.7711
ographical	-13.7715
क्शन	-13.7718
ert	-13.7738
▁compar	-13.774
वियन	-13.7745
हाला	-13.7747
esume	-13.7751
▁भरन	-13.7767
Source	-13.7768
▁अद	-13.7774
hearts	-13.7788
▁आंकड	-13.7788
spades	-13.7788
रिश	-13.7796
्जे	-13.7807
ebase	-13.7808
place	-13.7841
ंकित	-13.7848
book	-13.7854
ickn	-13.7859
program	-13.7868
▁मिन	-13.7876
नेवाल	-13.7878
eadcd	-13.7881
दी	-13.7889
ोक्स	-13.7892
▁Her	-13.7897
्या	-13.791
Description	-13.7932
क्ट	-13.7942
tal	-13.7955
Home	-13.7963
ोटी	-13.7965
Tod	-13.7973
unknown	-13.7974
▁संग्र	-13.7986
GNOME	-13.7995
labo	-13.8008
▁friend	-13.8016
▁Times	-13.8022
▁कंपोज	-13.8033
pell	-13.8035
▁बढ़ाय	-13.8051
dth	-13.8057
egu	-13.806
िल्ट	-13.8062
▁stashe	-13.808
तम	-13.81
Certificate	-13.8104
लाय	-13.8107
▁बि	-13.8116
uz	-13.813
ached	-13.8131
▁he	-13.8146
clubs	-13.8161
▁committ	-13.8183
फ्लैग	-13.8183
order	-13.8199
elem	-13.8223
uri	-13.8232
certificate	-13.8248
Find	-13.8251
erver	-13.8266
▁Trad	-13.8296
्यों	-13.8307
▁Ellipsi	-13.8316
भेजें	-13.8319
▁korean	-13.8324
▁प्रमाणपत्रः	-13.8325
attachment	-13.8336
▁japanese	-13.8347
▁दुर्घटना	-13.835
िग	-13.8351
igat	-13.8371
rolle	-13.8374
ीटें	-13.8375
▁Qua	-13.8382
been	-13.8385
ntly	-13.8393
▁फ़ि	-13.8397
pane	-13.8397
Brasero	-13.8409
▁Det	-13.841
arts	-13.8415
ntrusted	-13.8416
pend	-13.8425
▁compos	-13.8426
naming	-13.8431
डिय	-13.8435
tica	-13.8457
रवा	-13.8523
ey	-13.8526
▁tw	-13.853
ोमिन	-13.8536
Go	-13.8545
ada	-13.8551
ैंड	-13.8577
itc	-13.8578
▁सेव	-13.8584
lues	-13.8596
▁Crea	-13.8599
िमी	-13.8602
ांग	-13.8603
रबर	-13.8624
▁ule	-13.863
ght	-13.8633
vered	-13.8646
ोनिक	-13.8646
oose	-13.8649
▁रिस्	-13.865
मेटा	-13.8655
ंध	-13.8662
कॉ	-13.8669
वत्	-13.8673
▁केन	-13.8683
▁प्राधिक	-13.8685
▁पार्	-13.8685
review	-13.8689
▁construct	-13.8717
ंडे	-13.873
guide	-13.8741
न्द	-13.8747
▁लग	-13.8748
hab	-13.8752
nts	-13.879
▁Veri	-13.8796
avigation	-13.88
▁ठहर	-13.881
तो	-13.8825
reating	-13.8833
कार्	-13.8833
बि	-13.8835
bu	-13.8855
rre	-13.8868
radi	-13.8869
टे	-13.8873
संपादक	-13.8876
▁updat	-13.8876
▁cm	-13.8886
अमेरिका	-13.889
lendar	-13.8894
cript	-13.89
readable	-13.8901
hase	-13.8919
क्लिक	-13.893
Auto	-13.8931
remove	-13.8938
owest	-13.8945
ोलें	-13.8953
▁Rese	-13.8955
ब्ला	-13.8958
़ि	-13.896
onga	-13.8963
device	-13.8966
फॉर	-13.8969
cn	-13.8972
▁कड़	-13.8976
rida	-13.8977
sa	-13.8981
spelle	-13.8983
शः	-13.8991
score	-13.8991
▁श्रेणिय	-13.9001
ago	-13.9008
▁sta	-13.9008
उपलब्ध	-13.9017
mooth	-13.9042
अति	-13.9057
ning	-13.9061
DD	-13.9067
स्वतः	-13.907
ible	-13.9071
बेज	-13.9076
sv	-13.9083
AD	-13.9089
▁emit	-13.91
target	-13.9115
▁स्वच	-13.9117
without	-13.9118
ttendees	-13.9124
opic	-13.9127
▁फ्लै	-13.914
▁Clea	-13.9142
▁डाकपेट	-13.9147
▁Guide	-13.9148
केट	-13.9151
atched	-13.9156
▁वर्	-13.916
ontrol	-13.916
pplication	-13.9165
▁gn	-13.9166
ट्ठ	-13.9169
arning	-13.9174
▁postpone	-13.9174
▁unsubscrib	-13.9175
बंध	-13.9177
▁finish	-13.9178
▁decline	-13.9178
विक	-13.9178
rom	-13.9179
▁Hidde	-13.918
▁protect	-13.918
umber	-13.9181
भाष	-13.9182
▁Optimiz	-13.9183
eriod	-13.9183
▁परेशान	-13.9183
▁संयोज	-13.9184
▁design	-13.9185
nnect	-13.9185
urrences	-13.9186
▁प्रविष	-13.9187
▁खिंच	-13.9187
KID	-13.9187
डायरेक्ट	-13.9187
atekeeper	-13.9187
मतिभ्रम	-13.9187
LaTeX	-13.9187
चक्कर	-13.9187
▁Atomix	-13.9187
▁COBOL	-13.9187
▁EBookListener	-13.9187
▁Erlang	-13.9187
▁Haskell	-13.9187
▁OCaml	-13.9187
▁TCSH	-13.9187
▁VHDL	-13.9187
▁criterium	-13.9187
▁एटामिक्स	-13.9187
▁गुलाबी	-13.9187
▁टेब्स	-13.9187
▁दृष्टि	-13.9187
▁पाइंट्स	-13.9187
▁Forbid	-13.9187
▁डेलिमिटर	-13.9187
▁AWK	-13.9187
▁Binary	-13.9187
▁German	-13.9187
▁Rubrica	-13.9187
▁identities	-13.9187
▁Uncoated	-13.9187
▁Daily	-13.9187
▁Assembler	-13.9187
▁Oberon	-13.9187
▁Occurs	-13.9187
▁कन्फिगरे	-13.9187
▁Media	-13.9187
▁ड्राफ्टबाक्स	-13.9187
कैरिबो	-13.9187
▁Lotus	-13.9187
▁DUE	-13.9187
myco	-13.9188
▁बुधवार	-13.9188
▁Ruby	-13.9188
ब्लाँक	-13.9188
▁ActionScript	-13.9188
▁खिंचाव	-13.9188
▁Appoint	-13.9188
ariable	-13.9188
▁alphabetic	-13.9188
▁EMAIL	-13.9188
rfc	-13.9188
loud	-13.9188
▁libbrasero	-13.9188
ृद्ध	-13.9189
्मेर	-13.9189
▁Molecule	-13.9189
▁encr	-13.9189
इयो	-13.9189
▁OAF	-13.9189
GnomeCard	-13.9189
▁verification	-13.919
टरनेट	-13.919
▁साकेट	-13.919
▁एनक्रिप्शन	-13.919
▁Descripti	-13.919
बंधन	-13.9191
▁MTA	-13.9191
▁Edi	-13.9191
▁percentage	-13.9191
मतियां	-13.9191
▁Prolog	-13.9192
▁Strikethrough	-13.9193
▁descripti	-13.9193
▁tooltip	-13.9193
▁द्वि	-13.9193
firm	-13.9193
▁श्रृ	-13.9194
▁TeX	-13.9195
▁Tcl	-13.9195
amil	-13.9199
▁कैले	-13.9199
XX	-13.92
हाइट	-13.9201
▁दस्ता	-13.9201
माउ	-13.9201
▁मात्राएँ	-13.9201
▁Userna	-13.9202
▁alphabetically	-13.9203
▁Conv	-13.9204
▁SAS	-13.9204
▁interv	-13.9205
▁संस्क	-13.9205
OL	-13.9205
शॉट	-13.9206
▁JSP	-13.921
सर्ग	-13.921
▁सब्सक्राईव	-13.9211
▁स्वरूपण	-13.9211
GH	-13.9213
ज़ू	-13.9215
▁छुपाए	-13.9215
▁77	-13.9218
▁Acce	-13.922
▁copie	-13.922
▁Encry	-13.9222
▁Maple	-13.9223
्यक्त	-13.9228
Dir	-13.9228
▁फ्लैग्ड	-13.9229
▁Occ	-13.9234
Sq	-13.9235
▁एशिय	-13.9238
▁Portug	-13.9244
▁माड	-13.9246
उटलुक	-13.9247
▁खिसकाए	-13.9255
▁rise	-13.9255
▁inlined	-13.9256
रिलिक	-13.9257
▁नक्शा	-13.9259
▁Signat	-13.926
haracter	-13.9261
egory	-13.9261
वधिः	-13.9263
▁Rev	-13.9264
्चा	-13.9265
▁Anj	-13.9266
rning	-13.9269
elp	-13.927
ssages	-13.9273
[...]
